{
  "version": "1.0",
  "truncation": {
    "direction": "Right",
    "max_length": 4,
    "strategy": "LongestFirst",
    "stride": 0
  },
  "padding": null,
  "added_tokens": [
    {
      "id": 0,
      "content": "<pad>",
      "single_word": false,
      "lstrip": false,
      "rstrip": false,
      "normalized": false,
      "special": true
    },
    {
      "id": 1,
      "content": "</s>",
      "single_word": false,
      "lstrip": false,
      "rstrip": false,
      "normalized": false,
      "special": true
    },
    {
      "id": 2,
      "content": "<unk>",
      "single_word": false,
      "lstrip": false,
      "rstrip": false,
      "normalized": false,
      "special": true
    },
    {
      "id": 32000,
      "content": "<extra_id_0>",
      "single_word": false,
      "lstrip": false,
      "rstrip": false,
      "normalized": false,
      "special": true
    },
    {
      "id": 32001,
      "content": "<extra_id_1>",
      "single_word": false,
      "lstrip": false,
      "rstrip": false,
      "normalized": false,
      "special": true
    },
    {
      "id": 32002,
      "content": "<extra_id_2>",
      "single_word": false,
      "lstrip": false,
      "rstrip": false,
      "normalized": false,
      "special": true
    },
    {
      "id": 32003,
      "content": "<extra_id_3>",
      "single_word": false,
      "lstrip": false,
      "rstrip": false,
      "normalized": false,
      "special": true
    },
    {
      "id": 32004,
      "content": "<extra_id_4>",
      "single_word": false,
      "lstrip": false,
      "rstrip": false,
      "normalized": false,
      "special": true
    },
    {
      "id": 32005,
      "content": "<extra_id_5>",
      "single_word": false,
      "lstrip": false,
      "rstrip": false,
      "normalized": false,
      "special": true
    },
    {
      "id": 32006,
      "content": "<extra_id_6>",
      "single_word": false,
      "lstrip": false,
      "rstrip": false,
      "normalized": false,
      "special": true
    },
    {
      "id": 32007,
      "content": "<extra_id_7>",
      "single_word": false,
      "lstrip": false,
      "rstrip": false,
      "normalized": false,
      "special": true
    },
    {
      "id": 32008,
      "content": "<extra_id_8>",
      "single_word": false,
      "lstrip": false,
      "rstrip": false,
      "normalized": false,
      "special": true
    },
    {
      "id": 32009,
      "content": "<extra_id_9>",
      "single_word": false,
      "lstrip": false,
      "rstrip": false,
      "normalized": false,
      "special": true
    },
    {
      "id": 32010,
      "content": "<extra_id_10>",
      "single_word": false,
      "lstrip": false,
      "rstrip": false,
      "normalized": false,
      "special": true
    },
    {
      "id": 32011,
      "content": "<extra_id_11>",
      "single_word": false,
      "lstrip": false,
      "rstrip": false,
      "normalized": false,
      "special": true
    },
    {
      "id": 32012,
      "content": "<extra_id_12>",
      "single_word": false,
      "lstrip": false,
      "rstrip": false,
      "normalized": false,
      "special": true
    },
    {
      "id": 32013,
      "content": "<extra_id_13>",
      "single_word": false,
      "lstrip": false,
      "rstrip": false,
      "normalized": false,
      "special": true
    },
    {
      "id": 32014,
      "content": "<extra_id_14>",
      "single_word": false,
      "lstrip": false,
      "rstrip": false,
      "normalized": false,
      "special": true
    },
    {
      "id": 32015,
      "content": "<extra_id_15>",
      "single_word": false,
      "lstrip": false,
      "rstrip": false,
      "normalized": false,
      "special": true
    },
    {
      "id": 32016,
      "content": "<extra_id_16>",
      "single_word": false,
      "lstrip": false,
      "rstrip": false,
      "normalized": false,
      "special": true
    },
    {
      "id": 32017,
      "content": "<extra_id_17>",
      "single_word": false,
      "lstrip": false,
      "rstrip": false,
      "normalized": false,
      "special": true
    },
    {
      "id": 32018,
      "content": "<extra_id_18>",
      "single_word": false,
      "lstrip": false,
      "rstrip": false,
      "normalized": false,
      "special": true
    },
    {
      "id": 32019,
      "content": "<extra_id_19>",
      "single_word": false,
      "lstrip": false,
      "rstrip": false,
      "normalized": false,
      "special": true
    },
    {
      "id": 32020,
      "content": "<extra_id_20>",
      "single_word": false,
      "lstrip": false,
      "rstrip": false,
      "normalized": false,
      "special": true
    },
    {
      "id": 32021,
      "content": "<extra_id_21>",
      "single_word": false,
      "lstrip": false,
      "rstrip": false,
      "normalized": false,
      "special": true
    },
    {
      "id": 32022,
      "content": "<extra_id_22>",
      "single_word": false,
      "lstrip": false,
      "rstrip": false,
      "normalized": false,
      "special": true
    },
    {
      "id": 32023,
      "content": "<extra_id_23>",
      "single_word": false,
      "lstrip": false,
      "rstrip": false,
      "normalized": false,
      "special": true
    },
    {
      "id": 32024,
      "content": "<extra_id_24>",
      "single_word": false,
      "lstrip": false,
      "rstrip": false,
      "normalized": false,
      "special": true
    },
    {
      "id": 32025,
      "content": "<extra_id_25>",
      "single_word": false,
      "lstrip": false,
      "rstrip": false,
      "normalized": false,
      "special": true
    },
    {
      "id": 32026,
      "content": "<extra_id_26>",
      "single_word": false,
      "lstrip": false,
      "rstrip": false,
      "normalized": false,
      "special": true
    },
    {
      "id": 32027,
      "content": "<extra_id_27>",
      "single_word": false,
      "lstrip": false,
      "rstrip": false,
      "normalized": false,
      "special": true
    },
    {
      "id": 32028,
      "content": "<extra_id_28>",
      "single_word": false,
      "lstrip": false,
      "rstrip": false,
      "normalized": false,
      "special": true
    },
    {
      "id": 32029,
      "content": "<extra_id_29>",
      "single_word": false,
      "lstrip": false,
      "rstrip": false,
      "normalized": false,
      "special": true
    },
    {
      "id": 32030,
      "content": "<extra_id_30>",
      "single_word": false,
      "lstrip": false,
      "rstrip": false,
      "normalized": false,
      "special": true
    },
    {
      "id": 32031,
      "content": "<extra_id_31>",
      "single_word": false,
      "lstrip": false,
      "rstrip": false,
      "normalized": false,
      "special": true
    },
    {
      "id": 32032,
      "content": "<extra_id_32>",
      "single_word": false,
      "lstrip": false,
      "rstrip": false,
      "normalized": false,
      "special": true
    },
    {
      "id": 32033,
      "content": "<extra_id_33>",
      "single_word": false,
      "lstrip": false,
      "rstrip": false,
      "normalized": false,
      "special": true
    },
    {
      "id": 32034,
      "content": "<extra_id_34>",
      "single_word": false,
      "lstrip": false,
      "rstrip": false,
      "normalized": false,
      "special": true
    },
    {
      "id": 32035,
      "content": "<extra_id_35>",
      "single_word": false,
      "lstrip": false,
      "rstrip": false,
      "normalized": false,
      "special": true
    },
    {
      "id": 32036,
      "content": "<extra_id_36>",
      "single_word": false,
      "lstrip": false,
      "rstrip": false,
      "normalized": false,
      "special": true
    },
    {
      "id": 32037,
      "content": "<extra_id_37>",
      "single_word": false,
      "lstrip": false,
      "rstrip": false,
      "normalized": false,
      "special": true
    },
    {
      "id": 32038,
      "content": "<extra_id_38>",
      "single_word": false,
      "lstrip": false,
      "rstrip": false,
      "normalized": false,
      "special": true
    },
    {
      "id": 32039,
      "content": "<extra_id_39>",
      "single_word": false,
      "lstrip": false,
      "rstrip": false,
      "normalized": false,
      "special": true
    },
    {
      "id": 32040,
      "content": "<extra_id_40>",
      "single_word": false,
      "lstrip": false,
      "rstrip": false,
      "normalized": false,
      "special": true
    },
    {
      "id": 32041,
      "content": "<extra_id_41>",
      "single_word": false,
      "lstrip": false,
      "rstrip": false,
      "normalized": false,
      "special": true
    },
    {
      "id": 32042,
      "content": "<extra_id_42>",
      "single_word": false,
      "lstrip": false,
      "rstrip": false,
      "normalized": false,
      "special": true
    },
    {
      "id": 32043,
      "content": "<extra_id_43>",
      "single_word": false,
      "lstrip": false,
      "rstrip": false,
      "normalized": false,
      "special": true
    },
    {
      "id": 32044,
      "content": "<extra_id_44>",
      "single_word": false,
      "lstrip": false,
      "rstrip": false,
      "normalized": false,
      "special": true
    },
    {
      "id": 32045,
      "content": "<extra_id_45>",
      "single_word": false,
      "lstrip": false,
      "rstrip": false,
      "normalized": false,
      "special": true
    },
    {
      "id": 32046,
      "content": "<extra_id_46>",
      "single_word": false,
      "lstrip": false,
      "rstrip": false,
      "normalized": false,
      "special": true
    },
    {
      "id": 32047,
      "content": "<extra_id_47>",
      "single_word": false,
      "lstrip": false,
      "rstrip": false,
      "normalized": false,
      "special": true
    },
    {
      "id": 32048,
      "content": "<extra_id_48>",
      "single_word": false,
      "lstrip": false,
      "rstrip": false,
      "normalized": false,
      "special": true
    },
    {
      "id": 32049,
      "content": "<extra_id_49>",
      "single_word": false,
      "lstrip": false,
      "rstrip": false,
      "normalized": false,
      "special": true
    },
    {
      "id": 32050,
      "content": "<extra_id_50>",
      "single_word": false,
      "lstrip": false,
      "rstrip": false,
      "normalized": false,
      "special": true
    },
    {
      "id": 32051,
      "content": "<extra_id_51>",
      "single_word": false,
      "lstrip": false,
      "rstrip": false,
      "normalized": false,
      "special": true
    },
    {
      "id": 32052,
      "content": "<extra_id_52>",
      "single_word": false,
      "lstrip": false,
      "rstrip": false,
      "normalized": false,
      "special": true
    },
    {
      "id": 32053,
      "content": "<extra_id_53>",
      "single_word": false,
      "lstrip": false,
      "rstrip": false,
      "normalized": false,
      "special": true
    },
    {
      "id": 32054,
      "content": "<extra_id_54>",
      "single_word": false,
      "lstrip": false,
      "rstrip": false,
      "normalized": false,
      "special": true
    },
    {
      "id": 32055,
      "content": "<extra_id_55>",
      "single_word": false,
      "lstrip": false,
      "rstrip": false,
      "normalized": false,
      "special": true
    },
    {
      "id": 32056,
      "content": "<extra_id_56>",
      "single_word": false,
      "lstrip": false,
      "rstrip": false,
      "normalized": false,
      "special": true
    },
    {
      "id": 32057,
      "content": "<extra_id_57>",
      "single_word": false,
      "lstrip": false,
      "rstrip": false,
      "normalized": false,
      "special": true
    },
    {
      "id": 32058,
      "content": "<extra_id_58>",
      "single_word": false,
      "lstrip": false,
      "rstrip": false,
      "normalized": false,
      "special": true
    },
    {
      "id": 32059,
      "content": "<extra_id_59>",
      "single_word": false,
      "lstrip": false,
      "rstrip": false,
      "normalized": false,
      "special": true
    },
    {
      "id": 32060,
      "content": "<extra_id_60>",
      "single_word": false,
      "lstrip": false,
      "rstrip": false,
      "normalized": false,
      "special": true
    },
    {
      "id": 32061,
      "content": "<extra_id_61>",
      "single_word": false,
      "lstrip": false,
      "rstrip": false,
      "normalized": false,
      "special": true
    },
    {
      "id": 32062,
      "content": "<extra_id_62>",
      "single_word": false,
      "lstrip": false,
      "rstrip": false,
      "normalized": false,
      "special": true
    },
    {
      "id": 32063,
      "content": "<extra_id_63>",
      "single_word": false,
      "lstrip": false,
      "rstrip": false,
      "normalized": false,
      "special": true
    },
    {
      "id": 32064,
      "content": "<extra_id_64>",
      "single_word": false,
      "lstrip": false,
      "rstrip": false,
      "normalized": false,
      "special": true
    },
    {
      "id": 32065,
      "content": "<extra_id_65>",
      "single_word": false,
      "lstrip": false,
      "rstrip": false,
      "normalized": false,
      "special": true
    },
    {
      "id": 32066,
      "content": "<extra_id_66>",
      "single_word": false,
      "lstrip": false,
      "rstrip": false,
      "normalized": false,
      "special": true
    },
    {
      "id": 32067,
      "content": "<extra_id_67>",
      "single_word": false,
      "lstrip": false,
      "rstrip": false,
      "normalized": false,
      "special": true
    },
    {
      "id": 32068,
      "content": "<extra_id_68>",
      "single_word": false,
      "lstrip": false,
      "rstrip": false,
      "normalized": false,
      "special": true
    },
    {
      "id": 32069,
      "content": "<extra_id_69>",
      "single_word": false,
      "lstrip": false,
      "rstrip": false,
      "normalized": false,
      "special": true
    },
    {
      "id": 32070,
      "content": "<extra_id_70>",
      "single_word": false,
      "lstrip": false,
      "rstrip": false,
      "normalized": false,
      "special": true
    },
    {
      "id": 32071,
      "content": "<extra_id_71>",
      "single_word": false,
      "lstrip": false,
      "rstrip": false,
      "normalized": false,
      "special": true
    },
    {
      "id": 32072,
      "content": "<extra_id_72>",
      "single_word": false,
      "lstrip": false,
      "rstrip": false,
      "normalized": false,
      "special": true
    },
    {
      "id": 32073,
      "content": "<extra_id_73>",
      "single_word": false,
      "lstrip": false,
      "rstrip": false,
      "normalized": false,
      "special": true
    },
    {
      "id": 32074,
      "content": "<extra_id_74>",
      "single_word": false,
      "lstrip": false,
      "rstrip": false,
      "normalized": false,
      "special": true
    },
    {
      "id": 32075,
      "content": "<extra_id_75>",
      "single_word": false,
      "lstrip": false,
      "rstrip": false,
      "normalized": false,
      "special": true
    },
    {
      "id": 32076,
      "content": "<extra_id_76>",
      "single_word": false,
      "lstrip": false,
      "rstrip": false,
      "normalized": false,
      "special": true
    },
    {
      "id": 32077,
      "content": "<extra_id_77>",
      "single_word": false,
      "lstrip": false,
      "rstrip": false,
      "normalized": false,
      "special": true
    },
    {
      "id": 32078,
      "content": "<extra_id_78>",
      "single_word": false,
      "lstrip": false,
      "rstrip": false,
      "normalized": false,
      "special": true
    },
    {
      "id": 32079,
      "content": "<extra_id_79>",
      "single_word": false,
      "lstrip": false,
      "rstrip": false,
      "normalized": false,
      "special": true
    },
    {
      "id": 32080,
      "content": "<extra_id_80>",
      "single_word": false,
      "lstrip": false,
      "rstrip": false,
      "normalized": false,
      "special": true
    },
    {
      "id": 32081,
      "content": "<extra_id_81>",
      "single_word": false,
      "lstrip": false,
      "rstrip": false,
      "normalized": false,
      "special": true
    },
    {
      "id": 32082,
      "content": "<extra_id_82>",
      "single_word": false,
      "lstrip": false,
      "rstrip": false,
      "normalized": false,
      "special": true
    },
    {
      "id": 32083,
      "content": "<extra_id_83>",
      "single_word": false,
      "lstrip": false,
      "rstrip": false,
      "normalized": false,
      "special": true
    },
    {
      "id": 32084,
      "content": "<extra_id_84>",
      "single_word": false,
      "lstrip": false,
      "rstrip": false,
      "normalized": false,
      "special": true
    },
    {
      "id": 32085,
      "content": "<extra_id_85>",
      "single_word": false,
      "lstrip": false,
      "rstrip": false,
      "normalized": false,
      "special": true
    },
    {
      "id": 32086,
      "content": "<extra_id_86>",
      "single_word": false,
      "lstrip": false,
      "rstrip": false,
      "normalized": false,
      "special": true
    },
    {
      "id": 32087,
      "content": "<extra_id_87>",
      "single_word": false,
      "lstrip": false,
      "rstrip": false,
      "normalized": false,
      "special": true
    },
    {
      "id": 32088,
      "content": "<extra_id_88>",
      "single_word": false,
      "lstrip": false,
      "rstrip": false,
      "normalized": false,
      "special": true
    },
    {
      "id": 32089,
      "content": "<extra_id_89>",
      "single_word": false,
      "lstrip": false,
      "rstrip": false,
      "normalized": false,
      "special": true
    },
    {
      "id": 32090,
      "content": "<extra_id_90>",
      "single_word": false,
      "lstrip": false,
      "rstrip": false,
      "normalized": false,
      "special": true
    },
    {
      "id": 32091,
      "content": "<extra_id_91>",
      "single_word": false,
      "lstrip": false,
      "rstrip": false,
      "normalized": false,
      "special": true
    },
    {
      "id": 32092,
      "content": "<extra_id_92>",
      "single_word": false,
      "lstrip": false,
      "rstrip": false,
      "normalized": false,
      "special": true
    },
    {
      "id": 32093,
      "content": "<extra_id_93>",
      "single_word": false,
      "lstrip": false,
      "rstrip": false,
      "normalized": false,
      "special": true
    },
    {
      "id": 32094,
      "content": "<extra_id_94>",
      "single_word": false,
      "lstrip": false,
      "rstrip": false,
      "normalized": false,
      "special": true
    },
    {
      "id": 32095,
      "content": "<extra_id_95>",
      "single_word": false,
      "lstrip": false,
      "rstrip": false,
      "normalized": false,
      "special": true
    },
    {
      "id": 32096,
      "content": "<extra_id_96>",
      "single_word": false,
      "lstrip": false,
      "rstrip": false,
      "normalized": false,
      "special": true
    },
    {
      "id": 32097,
      "content": "<extra_id_97>",
      "single_word": false,
      "lstrip": false,
      "rstrip": false,
      "normalized": false,
      "special": true
    },
    {
      "id": 32098,
      "content": "<extra_id_98>",
      "single_word": false,
      "lstrip": false,
      "rstrip": false,
      "normalized": false,
      "special": true
    },
    {
      "id": 32099,
      "content": "<extra_id_99>",
      "single_word": false,
      "lstrip": false,
      "rstrip": false,
      "normalized": false,
      "special": true
    }
  ],
  "normalizer": null,
  "pre_tokenizer": {
    "type": "Sequence",
    "pretokenizers": [
      {
        "type": "WhitespaceSplit"
      },
      {
        "type": "Metaspace",
        "replacement": "▁",
        "prepend_scheme": "always",
        "split": true
      }
    ]
  },
  "post_processor": {
    "type": "TemplateProcessing",
    "single": [
      {
        "Sequence": {
          "id": "A",
          "type_id": 0
        }
      },
      {
        "SpecialToken": {
          "id": "</s>",
          "type_id": 0
        }
      }
    ],
    "pair": [
      {
        "Sequence": {
          "id": "A",
          "type_id": 0
        }
      },
      {
        "SpecialToken": {
          "id": "</s>",
          "type_id": 0
        }
      },
      {
        "Sequence": {
          "id": "B",
          "type_id": 0
        }
      },
      {
        "SpecialToken": {
          "id": "</s>",
          "type_id": 0
        }
      }
    ],
    "special_tokens": {
      "</s>": {
        "id": "</s>",
        "ids": [
          1
        ],
        "tokens": [
          "</s>"
        ]
      }
    }
  },
  "decoder": {
    "type": "Metaspace",
    "replacement": "▁",
    "prepend_scheme": "always",
    "split": true
  },
  "model": {
    "type": "Unigram",
    "unk_id": 2,
    "vocab": [
      [
        "<pad>",
        0.0
      ],
      [
        "</s>",
        0.0
      ],
      [
        "<unk>",
        0.0
      ],
      [
        "▁",
        -2.6838198626906475
      ],
      [
        ",",
        -3.399484384443646
      ],
      [
        ".",
        -3.4409003875963045
      ],
      [
        "▁có",
        -4.378658898049419
      ],
      [
        "▁thì",
        -4.395279302163425
      ],
      [
        "▁là",
        -4.4541898910361315
      ],
      [
        "1",
        -4.760952084479587
      ],
      [
        "▁mà",
        -4.7897970218847945
      ],
      [
        "▁nó",
        -4.936275899786638
      ],
      [
        "n",
        -4.952466424811961
      ],
      [
        "0",
        -4.959090243711952
      ],
      [
        "c",
        -4.974570646298098
      ],
      [
        "▁cũng",
        -5.026917259008481
      ],
      [
        "▁không",
        -5.057310574445035
      ],
      [
        "▁đi",
        -5.059542309314844
      ],
      [
        "t",
        -5.113607821024139
      ],
      [
        "2",
        -5.152925909279912
      ],
      [
        "▁rồi",
        -5.195706513934002
      ],
      [
        "▁làm",
        -5.247090643400806
      ],
      [
        "m",
        -5.264249884335074
      ],
      [
        "▁ko",
        -5.26515081619641
      ],
      [
        "▁này",
        -5.274945253626267
      ],
      [
        "▁mình",
        -5.2960726178482584
      ],
      [
        "▁cho",
        -5.317616672270773
      ],
      [
        "▁cái",
        -5.321882514732623
      ],
      [
        "h",
        -5.3860743542786
      ],
      [
        "▁được",
        -5.396685345368773
      ],
      [
        "▁gì",
        -5.408417585381592
      ],
      [
        "k",
        -5.425566853266865
      ],
      [
        "▁lại",
        -5.4342767697328345
      ],
      [
        "▁ra",
        -5.452545655774996
      ],
      [
        "▁như",
        -5.469694625566165
      ],
      [
        "▁còn",
        -5.485145734928906
      ],
      [
        "▁tôi",
        -5.526655267422932
      ],
      [
        "▁con",
        -5.56892897854058
      ],
      [
        "▁thôi",
        -5.584365749678399
      ],
      [
        "▁của",
        -5.586479740932232
      ],
      [
        "▁phải",
        -5.591311420178142
      ],
      [
        "▁nào",
        -5.5991883004350935
      ],
      [
        "▁người",
        -5.607620936053687
      ],
      [
        "▁mấy",
        -5.615787592392373
      ],
      [
        "▁với",
        -5.634777717691561
      ],
      [
        "▁em",
        -5.663358937140892
      ],
      [
        "ở",
        -5.676806099612236
      ],
      [
        "▁về",
        -5.744342507065376
      ],
      [
        "?",
        -5.754054476232275
      ],
      [
        "đ",
        -5.756273357178552
      ],
      [
        "▁đó",
        -5.762642311719757
      ],
      [
        "a",
        -5.766096946623774
      ],
      [
        "▁để",
        -5.769858462307134
      ],
      [
        "▁thấy",
        -5.773279705162999
      ],
      [
        "3",
        -5.78105466803034
      ],
      [
        "i",
        -5.793185573274343
      ],
      [
        "▁chứ",
        -5.798841684569618
      ],
      [
        "▁thằng",
        -5.799016906442599
      ],
      [
        "▁nhưng",
        -5.8072217411252165
      ],
      [
        "▁mới",
        -5.823175353140947
      ],
      [
        "▁nên",
        -5.8271081940807345
      ],
      [
        "▁thế",
        -5.8296042155952374
      ],
      [
        "g",
        -5.853478894318906
      ],
      [
        "▁bác",
        -5.865329864495093
      ],
      [
        "▁anh",
        -5.871543046191517
      ],
      [
        "▁và",
        -5.892835363944906
      ],
      [
        "▁vào",
        -5.89970697488681
      ],
      [
        "v",
        -5.905402310496342
      ],
      [
        "▁nhiều",
        -5.917741376092275
      ],
      [
        "5",
        -5.956415261510383
      ],
      [
        "▁hơn",
        -5.9651274918788975
      ],
      [
        "▁giờ",
        -5.9688369193655415
      ],
      [
        "▁nói",
        -5.977200473515335
      ],
      [
        "▁quá",
        -6.010162542700968
      ],
      [
        "▁nhà",
        -6.016118026629547
      ],
      [
        "à",
        -6.016547220890329
      ],
      [
        "▁các",
        -6.0197191547843705
      ],
      [
        "▁chỉ",
        -6.024923395848413
      ],
      [
        "▁hay",
        -6.034659143876695
      ],
      [
        "▁bị",
        -6.05647637405241
      ],
      [
        "▁trong",
        -6.0615130357457705
      ],
      [
        "▁năm",
        -6.063996971541162
      ],
      [
        "▁thím",
        -6.070056255461713
      ],
      [
        "▁đâu",
        -6.07286224982381
      ],
      [
        "▁ăn",
        -6.079456854303324
      ],
      [
        "▁lên",
        -6.102879364053056
      ],
      [
        "▁biết",
        -6.105466934126907
      ],
      [
        "▁fen",
        -6.111601417731613
      ],
      [
        "▁cả",
        -6.127224767686087
      ],
      [
        "y",
        -6.135710532787073
      ],
      [
        ")",
        -6.175148778977503
      ],
      [
        "▁tiền",
        -6.177623318984425
      ],
      [
        "▁mua",
        -6.178236117004555
      ],
      [
        "▁xe",
        -6.187140518408581
      ],
      [
        "▁sao",
        -6.208950496127963
      ],
      [
        "▁từ",
        -6.21096915552528
      ],
      [
        "▁công",
        -6.219585542143754
      ],
      [
        "▁đầu",
        -6.2256607551112655
      ],
      [
        "▁chưa",
        -6.227130268861028
      ],
      [
        "▁ông",
        -6.234291202295079
      ],
      [
        "▁vậy",
        -6.249386117501519
      ],
      [
        "▁luôn",
        -6.269115953083515
      ],
      [
        "-",
        -6.279378204706752
      ],
      [
        "▁sau",
        -6.280513723630293
      ],
      [
        "▁đã",
        -6.281125281694663
      ],
      [
        "▁học",
        -6.282536923849378
      ],
      [
        "▁vẫn",
        -6.282758744954618
      ],
      [
        "▁nữa",
        -6.291493649996601
      ],
      [
        "▁bạn",
        -6.303634230162961
      ],
      [
        "▁đến",
        -6.3078495794199725
      ],
      [
        "▁khi",
        -6.312291237733062
      ],
      [
        "o",
        -6.330883848093988
      ],
      [
        "s",
        -6.340804051127787
      ],
      [
        "4",
        -6.364307476458887
      ],
      [
        "▁đang",
        -6.38035201236201
      ],
      [
        "▁chuyện",
        -6.383119018939089
      ],
      [
        "▁thật",
        -6.410911443544514
      ],
      [
        "▁chắc",
        -6.416262680837608
      ],
      [
        "▁ai",
        -6.426427482165586
      ],
      [
        "p",
        -6.447455367320519
      ],
      [
        "▁hết",
        -6.4506254581061615
      ],
      [
        "l",
        -6.453305091929584
      ],
      [
        "e",
        -6.4618794215450635
      ],
      [
        "▁gái",
        -6.46376295959783
      ],
      [
        "b",
        -6.464912905457975
      ],
      [
        "▁khác",
        -6.481978942100897
      ],
      [
        ":",
        -6.489968216888068
      ],
      [
        "▁vì",
        -6.501804743875713
      ],
      [
        "▁lắm",
        -6.524285468910554
      ],
      [
        "▁đúng",
        -6.5332725805702125
      ],
      [
        "▁ngày",
        -6.54349343711093
      ],
      [
        "▁cứ",
        -6.554744424533537
      ],
      [
        "▁sẽ",
        -6.5558577582127135
      ],
      [
        "▁lúc",
        -6.56035594088185
      ],
      [
        "▁đấy",
        -6.561398988525271
      ],
      [
        "▁qua",
        -6.574086209557754
      ],
      [
        "▁thể",
        -6.579522640827957
      ],
      [
        "▁trước",
        -6.588260896974722
      ],
      [
        "u",
        -6.603758004744835
      ],
      [
        "▁những",
        -6.625753896061218
      ],
      [
        "▁nhé",
        -6.627471980455949
      ],
      [
        "á",
        -6.628373152975106
      ],
      [
        "\"",
        -6.640110072730902
      ],
      [
        "▁bảo",
        -6.648562439492887
      ],
      [
        "▁xem",
        -6.6585252545074844
      ],
      [
        "▁một",
        -6.666005591379362
      ],
      [
        "▁nếu",
        -6.67051951168915
      ],
      [
        "▁hàng",
        -6.678940831209227
      ],
      [
        "▁trên",
        -6.682051325507954
      ],
      [
        "▁việc",
        -6.687279981452848
      ],
      [
        "▁chơi",
        -6.687523273221775
      ],
      [
        "▁tự",
        -6.689812264769817
      ],
      [
        "▁muốn",
        -6.691456681245798
      ],
      [
        "▁đây",
        -6.693527991057287
      ],
      [
        "▁giá",
        -6.701301930541883
      ],
      [
        "▁lấy",
        -6.701639248595892
      ],
      [
        "▁xong",
        -6.706646769868202
      ],
      [
        "▁vợ",
        -6.717459682694916
      ],
      [
        "▁toàn",
        -6.725554691627211
      ],
      [
        "▁đọc",
        -6.726309932773026
      ],
      [
        "r",
        -6.7363611558143095
      ],
      [
        "▁lần",
        -6.737398917161762
      ],
      [
        "▁cảm",
        -6.7577929065652
      ],
      [
        "▁nhất",
        -6.75932709930713
      ],
      [
        "6",
        -6.766800413787218
      ],
      [
        "▁định",
        -6.77345106274055
      ],
      [
        "▁bên",
        -6.773571225075889
      ],
      [
        "7",
        -6.778510657432673
      ],
      [
        "(",
        -6.788597374003057
      ],
      [
        "▁nhau",
        -6.797761179247358
      ],
      [
        "ý",
        -6.80470790937755
      ],
      [
        "▁viết",
        -6.813162225315024
      ],
      [
        "▁kiểu",
        -6.815885820213918
      ],
      [
        "8",
        -6.822462716859164
      ],
      [
        "▁số",
        -6.823316168863515
      ],
      [
        "▁bọn",
        -6.828010341515023
      ],
      [
        "▁yêu",
        -6.836978751059503
      ],
      [
        "▁quan",
        -6.848707189704902
      ],
      [
        "▁mẹ",
        -6.853267323149083
      ],
      [
        "▁tâm",
        -6.862351814150285
      ],
      [
        "9",
        -6.869449768367341
      ],
      [
        "▁thớt",
        -6.871275986170815
      ],
      [
        "▁nhìn",
        -6.8735769424821225
      ],
      [
        "▁chạy",
        -6.878911388928982
      ],
      [
        "▁bán",
        -6.881363496552446
      ],
      [
        "▁theo",
        -6.882180541885981
      ],
      [
        "▁chả",
        -6.885108838871094
      ],
      [
        "▁nước",
        -6.887471553514933
      ],
      [
        "▁cao",
        -6.89194202556717
      ],
      [
        "▁ấy",
        -6.897007964987042
      ],
      [
        "▁thích",
        -6.899980510106701
      ],
      [
        "/",
        -6.910937122205205
      ],
      [
        "▁tính",
        -6.919465756519369
      ],
      [
        "▁cần",
        -6.926731046662038
      ],
      [
        "▁hắn",
        -6.9350677037674195
      ],
      [
        "▁vừa",
        -6.940932359768642
      ],
      [
        "▁chính",
        -6.9499376697249176
      ],
      [
        "▁thời",
        -6.950140362735201
      ],
      [
        "▁bản",
        -6.9546333094179165
      ],
      [
        "▁cơ",
        -6.954995477915883
      ],
      [
        "▁đá",
        -6.960465375371928
      ],
      [
        "x",
        -6.964972208024596
      ],
      [
        "▁nhỉ",
        -6.966545256945343
      ],
      [
        "d",
        -6.970566837969475
      ],
      [
        "▁bao",
        -6.973526043123837
      ],
      [
        "▁thêm",
        -6.981272466623189
      ],
      [
        "ạ",
        -6.981300662042198
      ],
      [
        "▁tình",
        -6.991590661229864
      ],
      [
        "▁dùng",
        -6.995007712843332
      ],
      [
        "▁thành",
        -6.995779073968732
      ],
      [
        "▁nghe",
        -6.996696255495966
      ],
      [
        "▁sự",
        -6.999266118669809
      ],
      [
        "▁do",
        -7.001368484129435
      ],
      [
        "▁tháng",
        -7.018683836758138
      ],
      [
        "▁tới",
        -7.032682664949437
      ],
      [
        "▁đồng",
        -7.045673836326921
      ],
      [
        "▁nhận",
        -7.046270384927606
      ],
      [
        "▁tay",
        -7.053397538090156
      ],
      [
        "▁bằng",
        -7.068187721816294
      ],
      [
        "ả",
        -7.073203679850009
      ],
      [
        "▁nghĩ",
        -7.074068543003085
      ],
      [
        "▁đời",
        -7.074837086943653
      ],
      [
        "▁lý",
        -7.079398929746745
      ],
      [
        "▁ngoài",
        -7.081945776271775
      ],
      [
        "▁bỏ",
        -7.082421896277237
      ],
      [
        "▁cách",
        -7.084562180622141
      ],
      [
        "!",
        -7.0849409764882125
      ],
      [
        "▁hỏi",
        -7.08527502682276
      ],
      [
        "▁hiểu",
        -7.091181439975756
      ],
      [
        "▁hình",
        -7.091910134412695
      ],
      [
        "▁chỗ",
        -7.092777790895942
      ],
      [
        "▁nhân",
        -7.099883098974082
      ],
      [
        "▁tin",
        -7.10993044136136
      ],
      [
        "▁ta",
        -7.11191962361065
      ],
      [
        "▁đường",
        -7.112708112169374
      ],
      [
        "▁mặt",
        -7.122129610108173
      ],
      [
        "▁kia",
        -7.125506728842796
      ],
      [
        "▁mất",
        -7.127901266935311
      ],
      [
        "ô",
        -7.146336940803639
      ],
      [
        "▁thường",
        -7.149909005176909
      ],
      [
        "▁tốt",
        -7.154340880698022
      ],
      [
        "▁sống",
        -7.155055173802056
      ],
      [
        "▁hợp",
        -7.162246657774601
      ],
      [
        "▁cùng",
        -7.17699341390137
      ],
      [
        "▁mỗi",
        -7.179948609506123
      ],
      [
        "▁khó",
        -7.180286740746952
      ],
      [
        "▁máy",
        -7.183217087965147
      ],
      [
        "▁tầm",
        -7.183902667981442
      ],
      [
        "tr",
        -7.188757988605435
      ],
      [
        "▁xin",
        -7.193157044042637
      ],
      [
        "▁chủ",
        -7.203259476879573
      ],
      [
        "▁trường",
        -7.205947531681229
      ],
      [
        "▁đẹp",
        -7.222061490846235
      ],
      [
        "▁vô",
        -7.226615794749014
      ],
      [
        "▁ít",
        -7.2334229612450205
      ],
      [
        "▁rất",
        -7.236595883672145
      ],
      [
        "▁dc",
        -7.240858630408917
      ],
      [
        "▁nhật",
        -7.245997760930953
      ],
      [
        "▁nay",
        -7.249366613237502
      ],
      [
        "▁chung",
        -7.254095975079624
      ],
      [
        "▁bình",
        -7.257026684209913
      ],
      [
        "ố",
        -7.257410174147452
      ],
      [
        "▁ngon",
        -7.258237398590737
      ],
      [
        "▁nhớ",
        -7.266060762740661
      ],
      [
        "▁sinh",
        -7.273318060257528
      ],
      [
        "▁đứa",
        -7.273873504174368
      ],
      [
        "▁tiếp",
        -7.275066959458544
      ],
      [
        "▁gia",
        -7.2753937435812
      ],
      [
        "%",
        -7.281852316607491
      ],
      [
        "▁đủ",
        -7.283561586619829
      ],
      [
        "▁hôm",
        -7.2847586308172865
      ],
      [
        "▁kinh",
        -7.2893569234207565
      ],
      [
        "▁gặp",
        -7.292243237664257
      ],
      [
        "▁gần",
        -7.299938834627799
      ],
      [
        "▁bài",
        -7.314122280745776
      ],
      [
        "▁lâu",
        -7.315383090396376
      ],
      [
        "▁dân",
        -7.317827826948111
      ],
      [
        "▁bắt",
        -7.320894049535804
      ],
      [
        "▁sang",
        -7.323132185980755
      ],
      [
        "▁tìm",
        -7.325184199552984
      ],
      [
        "▁động",
        -7.33039760676899
      ],
      [
        "▁thân",
        -7.330987701852985
      ],
      [
        "▁dễ",
        -7.338528951016871
      ],
      [
        "▁điểm",
        -7.349932293394325
      ],
      [
        "▁tư",
        -7.352431372898394
      ],
      [
        "▁họ",
        -7.359434830597253
      ],
      [
        "▁hoặc",
        -7.360148638567285
      ],
      [
        "▁cuối",
        -7.363172805683309
      ],
      [
        "▁câu",
        -7.375809983831305
      ],
      [
        "▁độ",
        -7.387222850321242
      ],
      [
        "▁gọi",
        -7.3898921883316255
      ],
      [
        "▁thứ",
        -7.398025798552911
      ],
      [
        "▁cũ",
        -7.398967256219592
      ],
      [
        "▁vụ",
        -7.40363357584356
      ],
      [
        "+",
        -7.407141047014166
      ],
      [
        "ế",
        -7.412999598789696
      ],
      [
        "▁quen",
        -7.418536459881537
      ],
      [
        "▁lương",
        -7.418678813489006
      ],
      [
        "▁thay",
        -7.422167213963551
      ],
      [
        "▁đéo",
        -7.42491902479218
      ],
      [
        "▁bộ",
        -7.429390502655117
      ],
      [
        "▁đề",
        -7.429635448934876
      ],
      [
        "▁báo",
        -7.4365936299425
      ],
      [
        "▁vấn",
        -7.443336307036111
      ],
      [
        "▁hơi",
        -7.446250314046848
      ],
      [
        "▁phát",
        -7.449042528162753
      ],
      [
        "▁tuổi",
        -7.449709258501544
      ],
      [
        "▁bà",
        -7.454868475442904
      ],
      [
        "▁hồi",
        -7.458801103244408
      ],
      [
        "▁vài",
        -7.464824984322856
      ],
      [
        "▁vl",
        -7.468079028662661
      ],
      [
        "▁quên",
        -7.471014521986955
      ],
      [
        "▁tại",
        -7.475881630123555
      ],
      [
        "▁ngồi",
        -7.480775681582928
      ],
      [
        "▁hiện",
        -7.493641472632202
      ],
      [
        "▁kể",
        -7.495015357123497
      ],
      [
        "▁tiếng",
        -7.501463966981724
      ],
      [
        "▁trả",
        -7.507035754397144
      ],
      [
        "▁chịu",
        -7.507491480856944
      ],
      [
        "▁điện",
        -7.510906821508529
      ],
      [
        "▁ngu",
        -7.514896978787499
      ],
      [
        "▁tập",
        -7.517089513645791
      ],
      [
        "▁loại",
        -7.51919839496596
      ],
      [
        "▁sợ",
        -7.520453783392494
      ],
      [
        "▁thông",
        -7.52163140332185
      ],
      [
        "▁kiếm",
        -7.521890307689667
      ],
      [
        "▁nghiệp",
        -7.523205524154608
      ],
      [
        "▁chết",
        -7.527036783362474
      ],
      [
        "▁tài",
        -7.539832176487653
      ],
      [
        "▁đánh",
        -7.5404006298750765
      ],
      [
        "▁ơi",
        -7.544828452746332
      ],
      [
        "▁khá",
        -7.545666546393258
      ],
      [
        "▁sai",
        -7.55063237694114
      ],
      [
        "▁đều",
        -7.556699723252436
      ],
      [
        "▁đồ",
        -7.558083661836656
      ],
      [
        "▁tuần",
        -7.560519818330045
      ],
      [
        "▁voz",
        -7.562706765260895
      ],
      [
        "▁thực",
        -7.57057389840722
      ],
      [
        "ổ",
        -7.573518416963871
      ],
      [
        "▁cấp",
        -7.574158748677672
      ],
      [
        "▁uống",
        -7.575577656525436
      ],
      [
        "▁đất",
        -7.576418077738509
      ],
      [
        "▁ngay",
        -7.577056424851703
      ],
      [
        "▁phần",
        -7.583394106538279
      ],
      [
        "▁điều",
        -7.586992689079791
      ],
      [
        "▁chồng",
        -7.587599595833774
      ],
      [
        "▁giải",
        -7.589592365408045
      ],
      [
        "ơ",
        -7.596045325193714
      ],
      [
        "▁củ",
        -7.597803426557176
      ],
      [
        "▁giống",
        -7.598347046153771
      ],
      [
        "▁đổi",
        -7.603425078501676
      ],
      [
        "▁càng",
        -7.604745590918034
      ],
      [
        "▁cầu",
        -7.605960193110805
      ],
      [
        "ì",
        -7.607536224280015
      ],
      [
        "▁nghiệm",
        -7.6116470097890065
      ],
      [
        "@",
        -7.61267863287835
      ],
      [
        "ờ",
        -7.61655089499979
      ],
      [
        "▁bố",
        -7.629251127087283
      ],
      [
        "▁cá",
        -7.635389277987748
      ],
      [
        "▁gian",
        -7.649966255451634
      ],
      [
        "▁chửi",
        -7.650757699459369
      ],
      [
        "▁thủ",
        -7.651914529747394
      ],
      [
        "▁trung",
        -7.653019618784985
      ],
      [
        "▁đối",
        -7.657585107507378
      ],
      [
        "▁lớn",
        -7.66034787181921
      ],
      [
        "▁năng",
        -7.662848739236386
      ],
      [
        "▁liên",
        -7.663349562128607
      ],
      [
        "▁ảnh",
        -7.664039379705587
      ],
      [
        "▁so",
        -7.665154469288355
      ],
      [
        "▁chi",
        -7.673647953319481
      ],
      [
        "▁quả",
        -7.674081191957949
      ],
      [
        "▁nội",
        -7.680679480587694
      ],
      [
        "▁viên",
        -7.681147821583973
      ],
      [
        "▁thử",
        -7.682721659625345
      ],
      [
        "▁sáng",
        -7.684598176656884
      ],
      [
        "▁tưởng",
        -7.687580666869966
      ],
      [
        "▁to",
        -7.692630958407404
      ],
      [
        "▁đại",
        -7.695072657080214
      ],
      [
        "▁nhỏ",
        -7.697797584238392
      ],
      [
        "▁tên",
        -7.704664155350182
      ],
      [
        "▁đừng",
        -7.706971142113849
      ],
      [
        "▁nhanh",
        -7.708025590197735
      ],
      [
        "▁ổn",
        -7.712764944307283
      ],
      [
        "▁cưới",
        -7.715889249602986
      ],
      [
        "▁trọng",
        -7.720907808568164
      ],
      [
        "▁trẻ",
        -7.7313021794174865
      ],
      [
        "▁nhiên",
        -7.736415125322793
      ],
      [
        "▁chuyển",
        -7.736661811689363
      ],
      [
        "▁chẳng",
        -7.736820352880901
      ],
      [
        "▁éo",
        -7.748034734770407
      ],
      [
        "▁hành",
        -7.752187941448088
      ],
      [
        "▁hoàn",
        -7.75231762073733
      ],
      [
        "▁mày",
        -7.752636272783384
      ],
      [
        "▁rảnh",
        -7.752828849549557
      ],
      [
        "▁cty",
        -7.752952023487111
      ],
      [
        "▁đội",
        -7.757504092791132
      ],
      [
        "▁chân",
        -7.758189579598074
      ],
      [
        "▁trai",
        -7.758471126431543
      ],
      [
        "▁dự",
        -7.762600744328768
      ],
      [
        "▁chán",
        -7.764114426496354
      ],
      [
        "▁xưa",
        -7.76925084492783
      ],
      [
        "▁coi",
        -7.769334139996001
      ],
      [
        "ê",
        -7.770827192128381
      ],
      [
        "ó",
        -7.773423467108369
      ],
      [
        "▁ng",
        -7.775595918202935
      ],
      [
        "▁thức",
        -7.775834627885212
      ],
      [
        "▁văn",
        -7.777281174312062
      ],
      [
        "▁tí",
        -7.778763737817922
      ],
      [
        "▁phí",
        -7.787234016092016
      ],
      [
        "▁dịch",
        -7.789172809185347
      ],
      [
        "▁phim",
        -7.794776485971491
      ],
      [
        "▁dụng",
        -7.797077389678627
      ],
      [
        "▁hội",
        -7.801174037728039
      ],
      [
        "▁đáng",
        -7.802861253640563
      ],
      [
        "▁cảnh",
        -7.804896241098199
      ],
      [
        "▁yếu",
        -7.806093904917631
      ],
      [
        "▁phòng",
        -7.806976475569655
      ],
      [
        "▁kết",
        -7.807888575917051
      ],
      [
        "▁mở",
        -7.809804453370626
      ],
      [
        "▁mắt",
        -7.810401270437026
      ],
      [
        "▁nam",
        -7.816747744380965
      ],
      [
        "▁vui",
        -7.819269636775992
      ],
      [
        "▁nha",
        -7.824996132362845
      ],
      [
        "▁thu",
        -7.826034055287247
      ],
      [
        "▁bóng",
        -7.829755694254075
      ],
      [
        "▁nổi",
        -7.831622050599256
      ],
      [
        "▁chia",
        -7.83440014156853
      ],
      [
        "▁truyện",
        -7.83762199177367
      ],
      [
        "▁xuống",
        -7.8444632686032865
      ],
      [
        "▁thi",
        -7.85085521010342
      ],
      [
        "▁đơn",
        -7.851965871050146
      ],
      [
        "▁chuẩn",
        -7.85761180816778
      ],
      [
        "▁xa",
        -7.86265212962954
      ],
      [
        "▁tối",
        -7.863414043453579
      ],
      [
        "▁nghỉ",
        -7.865196574149541
      ],
      [
        "▁mạnh",
        -7.868978680533951
      ],
      [
        "*",
        -7.877680787756425
      ],
      [
        "▁trận",
        -7.8793527427615935
      ],
      [
        "▁việt",
        -7.8824708021182275
      ],
      [
        "▁xúc",
        -7.883026360795107
      ],
      [
        "▁chúng",
        -7.89574684049045
      ],
      [
        "▁đình",
        -7.898145070722944
      ],
      [
        "▁chó",
        -7.8982213508591155
      ],
      [
        "▁tiên",
        -7.9046001889173745
      ],
      [
        "▁chất",
        -7.9059738362769565
      ],
      [
        "▁chục",
        -7.907227098268777
      ],
      [
        "▁mọi",
        -7.907335811676553
      ],
      [
        "▁đưa",
        -7.909446662034494
      ],
      [
        "▁xấu",
        -7.91121863733796
      ],
      [
        "▁tiêu",
        -7.913494900525183
      ],
      [
        "▁thanh",
        -7.918866905873141
      ],
      [
        "▁bé",
        -7.919940365205168
      ],
      [
        "▁khách",
        -7.924695319467373
      ],
      [
        "▁dù",
        -7.932258329295925
      ],
      [
        "▁lo",
        -7.938572543987979
      ],
      [
        "▁vs",
        -7.94109745676427
      ],
      [
        "ợ",
        -7.943349156333207
      ],
      [
        "▁niệm",
        -7.944332644291718
      ],
      [
        "▁rẻ",
        -7.945645377462897
      ],
      [
        "▁chọn",
        -7.953539110781254
      ],
      [
        "▁hệ",
        -7.9581893409610736
      ],
      [
        "▁lời",
        -7.95960633670771
      ],
      [
        "▁thương",
        -7.964458640744006
      ],
      [
        "▁trình",
        -7.966550418536956
      ],
      [
        "▁bệnh",
        -7.967820268012499
      ],
      [
        "▁xác",
        -7.969314765694282
      ],
      [
        "▁bàn",
        -7.973508229605491
      ],
      [
        "▁tụi",
        -7.974220814020478
      ],
      [
        "▁xài",
        -7.975104964169464
      ],
      [
        "▁nhập",
        -7.978297097786571
      ],
      [
        "▁ngủ",
        -7.984870039588509
      ],
      [
        "▁nhiêu",
        -7.986309367734348
      ],
      [
        "▁ok",
        -7.992199238123288
      ],
      [
        "▁lực",
        -7.995366552817245
      ],
      [
        "▁đòi",
        -8.00383054425844
      ],
      [
        "▁cô",
        -8.006782521881565
      ],
      [
        "▁cuộc",
        -8.007705295389979
      ],
      [
        "▁dẫn",
        -8.012027595445243
      ],
      [
        "▁thua",
        -8.01392415432261
      ],
      [
        "▁tăng",
        -8.017480625059871
      ],
      [
        "▁vị",
        -8.018160752578936
      ],
      [
        "▁lan",
        -8.022141374960063
      ],
      [
        "▁lưu",
        -8.027526389477648
      ],
      [
        "▁sức",
        -8.029382486044206
      ],
      [
        "▁lừa",
        -8.031306632880955
      ],
      [
        "▁giao",
        -8.033071746074851
      ],
      [
        "ư",
        -8.033226939290257
      ],
      [
        "▁thuộc",
        -8.034226519682571
      ],
      [
        "▁giảm",
        -8.037130330600874
      ],
      [
        "▁giới",
        -8.041235880594973
      ],
      [
        "▁chứng",
        -8.042830808983664
      ],
      [
        "▁tao",
        -8.043853529985096
      ],
      [
        "▁đợt",
        -8.044607332401858
      ],
      [
        "▁kêu",
        -8.045921366048866
      ],
      [
        "▁rõ",
        -8.048886388417438
      ],
      [
        "▁đóng",
        -8.054859732946337
      ],
      [
        "▁vãi",
        -8.06138198303653
      ],
      [
        "▁đàn",
        -8.063327597620106
      ],
      [
        "▁đỡ",
        -8.064736231707712
      ],
      [
        "▁tiếc",
        -8.068651579739287
      ],
      [
        "▁già",
        -8.069298653370875
      ],
      [
        "▁đặt",
        -8.071125125826399
      ],
      [
        "▁thẻ",
        -8.073422706270481
      ],
      [
        "▁sớm",
        -8.073831396062417
      ],
      [
        "▁phụ",
        -8.075514738066909
      ],
      [
        "▁đông",
        -8.076472465897826
      ],
      [
        "▁từng",
        -8.081281605232704
      ],
      [
        "▁bây",
        -8.084433868924437
      ],
      [
        "▁sản",
        -8.089109388102209
      ],
      [
        "▁lỗi",
        -8.089500012886674
      ],
      [
        "▁quay",
        -8.089712388040631
      ],
      [
        "▁khổ",
        -8.090563409803256
      ],
      [
        "▁chương",
        -8.092296465751845
      ],
      [
        "▁vẻ",
        -8.093507943051966
      ],
      [
        "▁cụ",
        -8.103271381431313
      ],
      [
        "▁may",
        -8.105098520166479
      ],
      [
        "▁mang",
        -8.113832864507865
      ],
      [
        "▁tác",
        -8.114216972892098
      ],
      [
        "▁hộ",
        -8.119004458226934
      ],
      [
        "▁dài",
        -8.126740280875923
      ],
      [
        "▁lạ",
        -8.128980418358088
      ],
      [
        "▁dám",
        -8.136994413782892
      ],
      [
        "▁lượng",
        -8.138325908817297
      ],
      [
        "▁chút",
        -8.14543090074145
      ],
      [
        "▁kiến",
        -8.145796982187377
      ],
      [
        "▁thái",
        -8.146743800214633
      ],
      [
        "▁cực",
        -8.148165566829224
      ],
      [
        "▁kỉ",
        -8.148377418534333
      ],
      [
        "▁thần",
        -8.149560864628011
      ],
      [
        "▁tất",
        -8.150488481757694
      ],
      [
        "▁vật",
        -8.151641467441793
      ],
      [
        "▁vozer",
        -8.153490306849925
      ],
      [
        "▁nữ",
        -8.155998070262921
      ],
      [
        "▁tạo",
        -8.156484261454214
      ],
      [
        "▁hẳn",
        -8.15865404412066
      ],
      [
        "▁cửa",
        -8.16169410710603
      ],
      [
        "▁dưới",
        -8.161850536014734
      ],
      [
        "▁giác",
        -8.161850746358166
      ],
      [
        "▁gửi",
        -8.163258077705796
      ],
      [
        "▁thuê",
        -8.16400315905389
      ],
      [
        "▁tàu",
        -8.167966953134654
      ],
      [
        "▁trang",
        -8.171124878295394
      ],
      [
        "▁bất",
        -8.175398681933993
      ],
      [
        "▁mai",
        -8.177775462038046
      ],
      [
        "q",
        -8.17864500603721
      ],
      [
        "▁quyết",
        -8.17868244010927
      ],
      [
        "▁bay",
        -8.179879107810686
      ],
      [
        "▁phép",
        -8.182955308087712
      ],
      [
        "f",
        -8.183546409487736
      ],
      [
        "▁mặc",
        -8.187986328912446
      ],
      [
        "▁chị",
        -8.189291554699846
      ],
      [
        "▁riêng",
        -8.19432057499899
      ],
      [
        "=",
        -8.194902984889143
      ],
      [
        "▁dạy",
        -8.196353432405454
      ],
      [
        "▁quê",
        -8.19686847930864
      ],
      [
        "ấ",
        -8.19928077881238
      ],
      [
        "▁giàu",
        -8.200991316399998
      ],
      [
        "▁tinh",
        -8.201816634432332
      ],
      [
        "▁thuốc",
        -8.203361539581268
      ],
      [
        "▁cháu",
        -8.20473201544712
      ],
      [
        "▁ngoại",
        -8.205215605459877
      ],
      [
        "▁quốc",
        -8.20879555687204
      ],
      [
        "▁nguyên",
        -8.21194276965733
      ],
      [
        "▁tui",
        -8.21536902037969
      ],
      [
        "▁trời",
        -8.217331226917123
      ],
      [
        "ủ",
        -8.218210590611374
      ],
      [
        "▁mùa",
        -8.219734307923414
      ],
      [
        "▁mỹ",
        -8.230357584580371
      ],
      [
        "▁đầy",
        -8.233040329831832
      ],
      [
        "▁hồ",
        -8.235880618285641
      ],
      [
        "▁đám",
        -8.235969672461502
      ],
      [
        "▁ae",
        -8.237110627631694
      ],
      [
        "▁xuất",
        -8.238513747886628
      ],
      [
        "▁toán",
        -8.24033495583864
      ],
      [
        "▁nghĩa",
        -8.248097729962625
      ],
      [
        "▁chiều",
        -8.249455140205116
      ],
      [
        "▁nhẹ",
        -8.250437285303166
      ],
      [
        "▁hạn",
        -8.251055456387423
      ],
      [
        "▁lợi",
        -8.25112709637511
      ],
      [
        "▁đau",
        -8.255329153019874
      ],
      [
        "▁mức",
        -8.256848885841011
      ],
      [
        "▁phân",
        -8.258904902116988
      ],
      [
        "▁giỏi",
        -8.262758218447397
      ],
      [
        "▁thiếu",
        -8.26389754369039
      ],
      [
        "▁phương",
        -8.266236132765373
      ],
      [
        "▁buồn",
        -8.267976841014745
      ],
      [
        "▁tiết",
        -8.268158571358747
      ],
      [
        "▁minh",
        -8.268501241373633
      ],
      [
        "▁chờ",
        -8.268832561340227
      ],
      [
        "▁tranh",
        -8.270446026213538
      ],
      [
        "▁sách",
        -8.27814507096049
      ],
      [
        "▁thị",
        -8.285165624349604
      ],
      [
        "▁tử",
        -8.28559696275392
      ],
      [
        "▁trừ",
        -8.293810142297822
      ],
      [
        "▁thấp",
        -8.295981520827194
      ],
      [
        "▁giả",
        -8.30383419476947
      ],
      [
        "▁nuôi",
        -8.304830897533586
      ],
      [
        "▁tỷ",
        -8.306782579514682
      ],
      [
        "▁kiện",
        -8.311505554209637
      ],
      [
        "▁giúp",
        -8.313840634796554
      ],
      [
        "▁chí",
        -8.31559059225315
      ],
      [
        "▁đăng",
        -8.323765757160546
      ],
      [
        "▁tặng",
        -8.323986741802322
      ],
      [
        "▁ba",
        -8.325975088096781
      ],
      [
        "▁mãi",
        -8.328116145059447
      ],
      [
        "▁hóa",
        -8.332705796602042
      ],
      [
        ">",
        -8.334185782722823
      ],
      [
        "▁đạo",
        -8.341575588051194
      ],
      [
        "▁chấp",
        -8.341905471514497
      ],
      [
        "▁lập",
        -8.342209773414869
      ],
      [
        "▁lớp",
        -8.342623638464596
      ],
      [
        "▁triệu",
        -8.34303509442822
      ],
      [
        "▁tây",
        -8.34458202601513
      ],
      [
        "▁mạng",
        -8.345407146400614
      ],
      [
        "▁xây",
        -8.345521162494576
      ],
      [
        "▁bánh",
        -8.346181966631674
      ],
      [
        "▁đoạn",
        -8.34871832677142
      ],
      [
        "▁chế",
        -8.35117790672389
      ],
      [
        "▁tích",
        -8.35337404889448
      ],
      [
        "▁giữ",
        -8.35552502982917
      ],
      [
        "▁cây",
        -8.356473082565948
      ],
      [
        "▁khỏi",
        -8.35718084199599
      ],
      [
        "▁tội",
        -8.361678302295331
      ],
      [
        "▁xã",
        -8.36289952178861
      ],
      [
        "▁biệt",
        -8.364063708071384
      ],
      [
        "▁đôi",
        -8.36720288317316
      ],
      [
        "▁trí",
        -8.367682300871843
      ],
      [
        "ứ",
        -8.368443573177142
      ],
      [
        "▁quyền",
        -8.369274179574111
      ],
      [
        "▁khu",
        -8.369358156668255
      ],
      [
        "▁đổ",
        -8.370931296550596
      ],
      [
        "▁chê",
        -8.371473231527501
      ],
      [
        "▁trị",
        -8.37261385921757
      ],
      [
        "▁tương",
        -8.37414821682613
      ],
      [
        "▁tốn",
        -8.375417420325634
      ],
      [
        "▁vệ",
        -8.378959308634277
      ],
      [
        "▁đêm",
        -8.379697496348994
      ],
      [
        "▁bận",
        -8.381432586626136
      ],
      [
        "▁đen",
        -8.382824894751021
      ],
      [
        "▁cuốn",
        -8.384292509461162
      ],
      [
        "▁thiết",
        -8.386034877301793
      ],
      [
        "▁trải",
        -8.3862849025823
      ],
      [
        "▁cắt",
        -8.386927438358471
      ],
      [
        "▁sân",
        -8.389314572379584
      ],
      [
        "▁thầy",
        -8.38954827649312
      ],
      [
        "▁chuyên",
        -8.389799393613503
      ],
      [
        "▁môn",
        -8.390197772889303
      ],
      [
        "▁suy",
        -8.391543359213339
      ],
      [
        "▁nằm",
        -8.400051642406401
      ],
      [
        "▁đứng",
        -8.403661806987348
      ],
      [
        "▁hiệu",
        -8.408160157966323
      ],
      [
        "▁kế",
        -8.408836731456368
      ],
      [
        "▁mồm",
        -8.409235330038022
      ],
      [
        "▁sắp",
        -8.410594909722494
      ],
      [
        "▁lí",
        -8.412308243583354
      ],
      [
        "▁lái",
        -8.41239135603268
      ],
      [
        "▁lịch",
        -8.413124510772665
      ],
      [
        "▁vay",
        -8.413205902272598
      ],
      [
        "▁luật",
        -8.414572922083893
      ],
      [
        "▁nặng",
        -8.41532730109443
      ],
      [
        "▁fb",
        -8.415582409219763
      ],
      [
        "▁mệt",
        -8.41566726958112
      ],
      [
        "▁quán",
        -8.4256432027131
      ],
      [
        "▁sĩ",
        -8.427518086623
      ],
      [
        "▁ghi",
        -8.427724203057325
      ],
      [
        "▁giữa",
        -8.430222327993773
      ],
      [
        "▁lòng",
        -8.432699841559131
      ],
      [
        "▁ca",
        -8.43728199484111
      ],
      [
        "▁fence",
        -8.441787033417187
      ],
      [
        "▁khoảng",
        -8.442849297304086
      ],
      [
        "▁nhờ",
        -8.444039499064136
      ],
      [
        "▁pháp",
        -8.444482274157297
      ],
      [
        "▁bữa",
        -8.455046127877553
      ],
      [
        "▁lẽ",
        -8.455474436795141
      ],
      [
        "▁cầm",
        -8.456083556387131
      ],
      [
        "▁đẻ",
        -8.465811503961975
      ],
      [
        "▁sử",
        -8.46719740473056
      ],
      [
        "▁thẳng",
        -8.46763317210492
      ],
      [
        "▁khả",
        -8.467669303275054
      ],
      [
        "▁hoa",
        -8.469956015432412
      ],
      [
        "▁da",
        -8.471996783450484
      ],
      [
        "▁cười",
        -8.472016030056238
      ],
      [
        "▁vàng",
        -8.473043876414534
      ],
      [
        "▁doanh",
        -8.474864812730372
      ],
      [
        "▁sửa",
        -8.476119803439557
      ],
      [
        "▁đức",
        -8.477021444264828
      ],
      [
        "▁giấy",
        -8.479440805391038
      ],
      [
        "▁biến",
        -8.48596977270656
      ],
      [
        "▁giáo",
        -8.49085694631782
      ],
      [
        "▁sếp",
        -8.505052730657816
      ],
      [
        "▁hai",
        -8.505915667689878
      ],
      [
        "▁ngân",
        -8.505965258068217
      ],
      [
        "▁hưởng",
        -8.506899642060747
      ],
      [
        "▁trái",
        -8.513908925196455
      ],
      [
        "ọ",
        -8.514947931702794
      ],
      [
        "▁duy",
        -8.515238623998053
      ],
      [
        "▁ghê",
        -8.519912508393913
      ],
      [
        "▁hãng",
        -8.524348544380738
      ],
      [
        "▁du",
        -8.527375718721098
      ],
      [
        "▁chú",
        -8.533543317907098
      ],
      [
        "▁quy",
        -8.533929458120607
      ],
      [
        "▁linh",
        -8.534764025193292
      ],
      [
        "▁j",
        -8.536997028918092
      ],
      [
        "▁tiện",
        -8.54086788905666
      ],
      [
        "▁lol",
        -8.542086758338916
      ],
      [
        "▁quanh",
        -8.542256111110396
      ],
      [
        "▁hướng",
        -8.543548943335672
      ],
      [
        "▁vcl",
        -8.544403351385213
      ],
      [
        "▁kém",
        -8.548793335463689
      ],
      [
        "▁tổng",
        -8.550077039755708
      ],
      [
        "▁lão",
        -8.552317469129312
      ],
      [
        "▁xưng",
        -8.55342108126207
      ],
      [
        "▁đón",
        -8.556178787849577
      ],
      [
        "▁tham",
        -8.556629033224905
      ],
      [
        "▁cơm",
        -8.558209082879445
      ],
      [
        "▁bạc",
        -8.55824581570671
      ],
      [
        "▁rỗi",
        -8.560745255055503
      ],
      [
        "▁phục",
        -8.56138457089245
      ],
      [
        "▁nơi",
        -8.565087257420805
      ],
      [
        "▁màu",
        -8.565265892207082
      ],
      [
        "▁tục",
        -8.566223645796711
      ],
      [
        "▁tận",
        -8.571028117459601
      ],
      [
        "▁vòng",
        -8.571580676967452
      ],
      [
        "▁ngành",
        -8.573997678569226
      ],
      [
        "▁liệu",
        -8.57435820076056
      ],
      [
        "▁diễn",
        -8.574421192375429
      ],
      [
        "▁máu",
        -8.574636624740865
      ],
      [
        "▁hóng",
        -8.576220815533222
      ],
      [
        "▁khoản",
        -8.579967539258604
      ],
      [
        "_",
        -8.580947463692258
      ],
      [
        "▁méo",
        -8.58221347816209
      ],
      [
        "▁nhắn",
        -8.582966718170217
      ],
      [
        "▁phá",
        -8.584689424216645
      ],
      [
        "▁sướng",
        -8.585728291078844
      ],
      [
        "▁địa",
        -8.585865509123169
      ],
      [
        "▁tỉnh",
        -8.590182981730164
      ],
      [
        "▁tượng",
        -8.59357381889574
      ],
      [
        "▁ma",
        -8.594833115819092
      ],
      [
        "▁đem",
        -8.598113947508473
      ],
      [
        "▁dụ",
        -8.599198245337925
      ],
      [
        "ú",
        -8.601875170614793
      ],
      [
        "▁link",
        -8.604417872740811
      ],
      [
        "▁hạ",
        -8.604576408632738
      ],
      [
        "▁xinh",
        -8.60900968732967
      ],
      [
        "▁ví",
        -8.609071787521025
      ],
      [
        "▁đặc",
        -8.609702210769886
      ],
      [
        "▁đỏ",
        -8.61061570770741
      ],
      [
        "▁niên",
        -8.611106774733221
      ],
      [
        "▁hàn",
        -8.611462059930268
      ],
      [
        "▁game",
        -8.613550333113823
      ],
      [
        "▁biển",
        -8.614276405015561
      ],
      [
        "▁cứu",
        -8.614395533164332
      ],
      [
        "▁dòng",
        -8.615138977459656
      ],
      [
        "ớ",
        -8.61753439534
      ],
      [
        "ề",
        -8.619065664929106
      ],
      [
        "▁kí",
        -8.619496736009989
      ],
      [
        "▁nửa",
        -8.620245505695216
      ],
      [
        "▁xử",
        -8.623076549567015
      ],
      [
        "▁món",
        -8.623574653810184
      ],
      [
        "▁nghề",
        -8.62443358349633
      ],
      [
        "▁nghèo",
        -8.625814990838792
      ],
      [
        "▁kiểm",
        -8.631999287604796
      ],
      [
        "▁thất",
        -8.63361149581411
      ],
      [
        "▁ký",
        -8.634927883991354
      ],
      [
        "▁grab",
        -8.635997102849476
      ],
      [
        "▁thắng",
        -8.637135095925483
      ],
      [
        "âm",
        -8.63859424819618
      ],
      [
        "▁tín",
        -8.639625573426034
      ],
      [
        "▁mắc",
        -8.643068074154225
      ],
      [
        "▁lãi",
        -8.645581651633139
      ],
      [
        "▁hiểm",
        -8.647303289140416
      ],
      [
        "▁mùi",
        -8.650016509047502
      ],
      [
        "▁thoại",
        -8.650327235449286
      ],
      [
        "▁hoàng",
        -8.650649403615922
      ],
      [
        "▁dính",
        -8.651253622070449
      ],
      [
        "▁nhạc",
        -8.651602767761156
      ],
      [
        "▁chữ",
        -8.655258015125863
      ],
      [
        "ệ",
        -8.66016274143839
      ],
      [
        "▁kéo",
        -8.661079531428884
      ],
      [
        "▁dây",
        -8.663704403283111
      ],
      [
        "▁châu",
        -8.664010164482654
      ],
      [
        "▁ban",
        -8.664714925349134
      ],
      [
        "▁thiên",
        -8.666147669728902
      ],
      [
        "▁cha",
        -8.669287370104996
      ],
      [
        "▁kỹ",
        -8.673183779204697
      ],
      [
        "▁cục",
        -8.67344085402742
      ],
      [
        "▁chở",
        -8.673928524317017
      ],
      [
        "▁tùy",
        -8.677909463409067
      ],
      [
        "▁hôn",
        -8.678440029441106
      ],
      [
        "▁gió",
        -8.680687567217781
      ],
      [
        "▁phố",
        -8.68295690801254
      ],
      [
        "▁suốt",
        -8.683499798432667
      ],
      [
        "▁hứng",
        -8.683634580217586
      ],
      [
        "▁phong",
        -8.683917931230992
      ],
      [
        "▁kỳ",
        -8.68838466740397
      ],
      [
        "▁nóng",
        -8.694375017298174
      ],
      [
        "'",
        -8.694521553571297
      ],
      [
        "▁giản",
        -8.695956522555038
      ],
      [
        "▁tốc",
        -8.69669291696867
      ],
      [
        "▁chụp",
        -8.697024512466951
      ],
      [
        "▁thống",
        -8.697865103020474
      ],
      [
        "▁ngang",
        -8.69981627224152
      ],
      [
        "▁khám",
        -8.700081756499815
      ],
      [
        "▁trợ",
        -8.702782446481558
      ],
      [
        "▁mái",
        -8.703064203826811
      ],
      [
        "ứng",
        -8.706696188420912
      ],
      [
        "▁thuật",
        -8.70685817320962
      ],
      [
        "▁sát",
        -8.708342315237141
      ],
      [
        "▁yên",
        -8.708758243878075
      ],
      [
        "▁dạng",
        -8.709837843549595
      ],
      [
        "▁lạc",
        -8.710163535008904
      ],
      [
        "▁vi",
        -8.710823347440252
      ],
      [
        "▁rút",
        -8.711031232232429
      ],
      [
        "▁căn",
        -8.71240334445051
      ],
      [
        "▁thịt",
        -8.717325139444293
      ],
      [
        "▁tết",
        -8.722354375281895
      ],
      [
        "é",
        -8.728189191320935
      ],
      [
        "▁bật",
        -8.729171777767586
      ],
      [
        "▁tai",
        -8.731221671611866
      ],
      [
        "▁danh",
        -8.733512050801114
      ],
      [
        "▁mong",
        -8.737627026677968
      ],
      [
        "▁triển",
        -8.738190959119423
      ],
      [
        "▁lao",
        -8.739194408310079
      ],
      [
        "▁hậu",
        -8.74124345704099
      ],
      [
        "▁viện",
        -8.744251865772052
      ],
      [
        "▁fan",
        -8.744456072440949
      ],
      [
        "▁lạnh",
        -8.746058536987503
      ],
      [
        "▁chiến",
        -8.750445762955128
      ],
      [
        "▁trở",
        -8.751555913253585
      ],
      [
        "▁top",
        -8.754623322234725
      ],
      [
        "▁vọng",
        -8.75623474437636
      ],
      [
        "▁trắng",
        -8.75720368971746
      ],
      [
        "▁block",
        -8.757521441262845
      ],
      [
        "▁sơ",
        -8.7578637506506
      ],
      [
        "▁tỉ",
        -8.758758744850429
      ],
      [
        "▁đợi",
        -8.763384338967496
      ],
      [
        "▁phản",
        -8.765193983944398
      ],
      [
        "▁răng",
        -8.76701005954311
      ],
      [
        "▁bò",
        -8.771158593140347
      ],
      [
        "▁khí",
        -8.771451971291583
      ],
      [
        "▁tuyển",
        -8.771459221227522
      ],
      [
        "▁thuyết",
        -8.77159027077416
      ],
      [
        "▁tiến",
        -8.772623618498413
      ],
      [
        "▁xăng",
        -8.77357188367259
      ],
      [
        "▁quân",
        -8.773892074440617
      ],
      [
        "▁cạnh",
        -8.779751811192366
      ],
      [
        "▁pha",
        -8.781093246272182
      ],
      [
        "▁nhảy",
        -8.784445364270042
      ],
      [
        "▁nghệ",
        -8.785230628993569
      ],
      [
        "▁sạch",
        -8.78597711841425
      ],
      [
        "▁vốn",
        -8.788153506231778
      ],
      [
        "▁quần",
        -8.7900593043726
      ],
      [
        "▁trò",
        -8.793430718065231
      ],
      [
        "▁dạo",
        -8.796051366492915
      ],
      [
        "▁kèo",
        -8.800202965666191
      ],
      [
        "▁cân",
        -8.80062621580861
      ],
      [
        "▁khoa",
        -8.802500303478242
      ],
      [
        "▁bớt",
        -8.8032418024043
      ],
      [
        "▁làng",
        -8.805726456284592
      ],
      [
        "▁sẵn",
        -8.808704038068505
      ],
      [
        "▁luận",
        -8.810499326553575
      ],
      [
        "ồ",
        -8.813585074053996
      ],
      [
        "▁hút",
        -8.81552697695576
      ],
      [
        "▁trăm",
        -8.815931871150815
      ],
      [
        "▁mã",
        -8.817368027340336
      ],
      [
        "▁thuế",
        -8.81860654531449
      ],
      [
        "▁đấu",
        -8.819940158891308
      ],
      [
        "▁up",
        -8.820794020867782
      ],
      [
        "▁phi",
        -8.826756388512162
      ],
      [
        "▁đâm",
        -8.829384259400653
      ],
      [
        "▁cay",
        -8.831368567282539
      ],
      [
        "ể",
        -8.831903731044342
      ],
      [
        "▁trc",
        -8.833782522523721
      ],
      [
        "▁mời",
        -8.834437298611896
      ],
      [
        "▁siêu",
        -8.835337804373793
      ],
      [
        "▁truyền",
        -8.835735535176738
      ],
      [
        "▁app",
        -8.835824411357319
      ],
      [
        "▁quản",
        -8.838351310838936
      ],
      [
        "▁lai",
        -8.839590088656525
      ],
      [
        "▁cộng",
        -8.842942468860995
      ],
      [
        "▁dư",
        -8.84416779239261
      ],
      [
        "▁cấm",
        -8.845396140634591
      ],
      [
        "▁mưa",
        -8.846674900165107
      ],
      [
        "▁lành",
        -8.847453426923096
      ],
      [
        "▁chai",
        -8.85254521957099
      ],
      [
        "▁khỏe",
        -8.854360150600797
      ],
      [
        "▁tán",
        -8.85447419186223
      ],
      [
        "▁said",
        -8.857061151556994
      ],
      [
        "▁nhắc",
        -8.861863007920187
      ],
      [
        "▁hẹn",
        -8.863109827993767
      ],
      [
        "▁sale",
        -8.865364339356928
      ],
      [
        "▁phết",
        -8.866716349859376
      ],
      [
        "▁gấp",
        -8.868657901884426
      ],
      [
        "▁thèm",
        -8.869853773880354
      ],
      [
        "▁gây",
        -8.874117461346044
      ],
      [
        "▁chăm",
        -8.874426521362343
      ],
      [
        "ẻ",
        -8.877827971213467
      ],
      [
        "▁thoải",
        -8.880148479606383
      ],
      [
        "▁tra",
        -8.884357172931912
      ],
      [
        "▁ghét",
        -8.884622533084087
      ],
      [
        "▁kìa",
        -8.88509673486256
      ],
      [
        "▁dần",
        -8.88610615595149
      ],
      [
        "▁não",
        -8.886921346983184
      ],
      [
        "▁đít",
        -8.889449786416806
      ],
      [
        "▁vận",
        -8.890925591459427
      ],
      [
        "▁mối",
        -8.8912398095787
      ],
      [
        "▁thú",
        -8.89374018977823
      ],
      [
        "▁hoạt",
        -8.899852502867631
      ],
      [
        "▁dầu",
        -8.900121775882802
      ],
      [
        "▁cỡ",
        -8.900128203894212
      ],
      [
        "▁xanh",
        -8.902465257612182
      ],
      [
        "▁đắt",
        -8.905854674233256
      ],
      [
        "▁nhậu",
        -8.908237306362192
      ],
      [
        "▁mu",
        -8.911567585927298
      ],
      [
        "▁tức",
        -8.911612710786533
      ],
      [
        "▁phạm",
        -8.912496061677052
      ],
      [
        "▁phẩm",
        -8.914775591576488
      ],
      [
        "▁phen",
        -8.919189558413974
      ],
      [
        "▁buổi",
        -8.922313658682771
      ],
      [
        "▁lũ",
        -8.922345480058329
      ],
      [
        "▁phúc",
        -8.922557197304092
      ],
      [
        "▁quảng",
        -8.922676374132797
      ],
      [
        "▁hài",
        -8.924845287134104
      ],
      [
        "▁tổ",
        -8.926208114731702
      ],
      [
        "▁sở",
        -8.927906859249084
      ],
      [
        "▁nick",
        -8.928285780270185
      ],
      [
        "▁kệ",
        -8.929076931057187
      ],
      [
        "▁tù",
        -8.929594266346678
      ],
      [
        "▁cáo",
        -8.931291932979851
      ],
      [
        "▁chắn",
        -8.932416407170829
      ],
      [
        "▁tô",
        -8.934065456933334
      ],
      [
        "▁trưởng",
        -8.934179248446204
      ],
      [
        "▁dục",
        -8.93447044529813
      ],
      [
        "▁khai",
        -8.934672402275229
      ],
      [
        "▁góp",
        -8.934903828865988
      ],
      [
        "▁xét",
        -8.937990972616433
      ],
      [
        "▁phê",
        -8.939329235321114
      ],
      [
        "▁nh",
        -8.939572249833777
      ],
      [
        "▁kích",
        -8.943305225538463
      ],
      [
        "ỗ",
        -8.947800380009618
      ],
      [
        "#",
        -8.949616074177856
      ],
      [
        "▁đấm",
        -8.951938603368818
      ],
      [
        "▁đỉnh",
        -8.952106732152268
      ],
      [
        "▁trách",
        -8.952775135840522
      ],
      [
        "▁trúng",
        -8.952809353252075
      ],
      [
        "z",
        -8.953114655128948
      ],
      [
        "▁bè",
        -8.953649059446464
      ],
      [
        "▁ch",
        -8.953948940887404
      ],
      [
        "▁sẻ",
        -8.954277815393516
      ],
      [
        "▁suất",
        -8.95562333339339
      ],
      [
        "▁diện",
        -8.95606627692222
      ],
      [
        "▁nhu",
        -8.956505811707789
      ],
      [
        "▁bắc",
        -8.956871215000321
      ],
      [
        "▁nhầm",
        -8.957500855122031
      ],
      [
        "▁đèn",
        -8.95972036766718
      ],
      [
        "▁nè",
        -8.961462751809671
      ],
      [
        "▁cam",
        -8.964716703870126
      ],
      [
        "▁sơn",
        -8.96677744661767
      ],
      [
        "▁ngược",
        -8.967159020050568
      ],
      [
        "▁hạng",
        -8.970192819575383
      ],
      [
        "▁tạm",
        -8.973074349949112
      ],
      [
        "▁ngại",
        -8.977334572032824
      ],
      [
        "▁mục",
        -8.977466091159306
      ],
      [
        "▁lỗ",
        -8.978911430063132
      ],
      [
        "▁ổng",
        -8.979271750639688
      ],
      [
        "ù",
        -8.979320762437226
      ],
      [
        "▁lắp",
        -8.982136555039338
      ],
      [
        "▁hoá",
        -8.984261114623155
      ],
      [
        "▁ha",
        -8.986747965414523
      ],
      [
        "▁tránh",
        -8.986916547298213
      ],
      [
        "▁dậy",
        -8.989389547697009
      ],
      [
        "▁đẩy",
        -8.992136893892791
      ],
      [
        "▁sư",
        -8.99219328642242
      ],
      [
        "▁thừa",
        -8.99528255800112
      ],
      [
        "▁sánh",
        -8.995750831779059
      ],
      [
        "▁hòa",
        -8.996488111820764
      ],
      [
        "▁rác",
        -8.996616942552984
      ],
      [
        "ò",
        -8.99856305493236
      ],
      [
        "▁dựng",
        -9.004885619276786
      ],
      [
        "▁dâm",
        -9.005381664545135
      ],
      [
        "▁cmnr",
        -9.006132151480726
      ],
      [
        "▁gốc",
        -9.00655013510994
      ],
      [
        "▁lệ",
        -9.007233229714732
      ],
      [
        "▁nhiệt",
        -9.007238208325752
      ],
      [
        "▁th",
        -9.010403784389167
      ],
      [
        "▁tắt",
        -9.014182002440894
      ],
      [
        "▁video",
        -9.016675544294465
      ],
      [
        "í",
        -9.016995021423488
      ],
      [
        "▁rượu",
        -9.021372828721356
      ],
      [
        "▁vũ",
        -9.021380205349017
      ],
      [
        "▁mũi",
        -9.021462678879123
      ],
      [
        "▁chém",
        -9.021503823277405
      ],
      [
        "▁ưu",
        -9.022488838173857
      ],
      [
        "▁đoán",
        -9.02301505280762
      ],
      [
        "“",
        -9.024445890976164
      ],
      [
        "▁nhóm",
        -9.025121733918027
      ],
      [
        "▁trực",
        -9.025422039050609
      ],
      [
        "”",
        -9.028311932109892
      ],
      [
        "▁độc",
        -9.029960341161472
      ],
      [
        "▁bù",
        -9.03344039773067
      ],
      [
        "▁trông",
        -9.034825905931124
      ],
      [
        "]",
        -9.037473150221054
      ],
      [
        "▁nâng",
        -9.041313087780058
      ],
      [
        "▁nguồn",
        -9.041688466534591
      ],
      [
        "▁xóa",
        -9.042089308609748
      ],
      [
        "▁nát",
        -9.045697418121009
      ],
      [
        "âu",
        -9.047786767672218
      ],
      [
        "▁hại",
        -9.048268801021877
      ],
      [
        "▁ủng",
        -9.056834965590395
      ],
      [
        "▁tỏi",
        -9.05759543674123
      ],
      [
        "▁chống",
        -9.058906052460369
      ],
      [
        "▁check",
        -9.059171452609217
      ],
      [
        "▁vkl",
        -9.061239661864713
      ],
      [
        "▁miền",
        -9.06175150564184
      ],
      [
        "▁kĩ",
        -9.063093262098512
      ],
      [
        "▁shopee",
        -9.06548922298606
      ],
      [
        "▁rộng",
        -9.06695745711629
      ],
      [
        "▁chức",
        -9.069320121570152
      ],
      [
        "▁nạn",
        -9.074638671708986
      ],
      [
        "▁dắt",
        -9.075253713237302
      ],
      [
        "▁cãi",
        -9.076982835908645
      ],
      [
        "▁bước",
        -9.078018001377185
      ],
      [
        "▁hát",
        -9.079643518647009
      ],
      [
        "▁loạn",
        -9.080173649145047
      ],
      [
        "▁tải",
        -9.084048432324176
      ],
      [
        "▁trọ",
        -9.085079608465485
      ],
      [
        "▁dưỡng",
        -9.085867186252871
      ],
      [
        "▁lướt",
        -9.08934068815303
      ],
      [
        "▁mạch",
        -9.092117948241045
      ],
      [
        "▁chúc",
        -9.092535113218856
      ],
      [
        "▁post",
        -9.09265155341982
      ],
      [
        "▁má",
        -9.093027390449356
      ],
      [
        "▁môi",
        -9.093816118523122
      ],
      [
        "▁vé",
        -9.094037830275273
      ],
      [
        "▁ham",
        -9.094701635086958
      ],
      [
        "▁cận",
        -9.09750524085694
      ],
      [
        "▁team",
        -9.099307558354951
      ],
      [
        "▁bank",
        -9.100064899258816
      ],
      [
        "▁chiếu",
        -9.102258518625066
      ],
      [
        "▁đạp",
        -9.105335706408113
      ],
      [
        "▁hải",
        -9.105386763473003
      ],
      [
        "▁khẩu",
        -9.10808529261464
      ],
      [
        "▁rửa",
        -9.111323802076052
      ],
      [
        "▁bốc",
        -9.112377665107442
      ],
      [
        "▁clip",
        -9.11244434078146
      ],
      [
        "▁chậm",
        -9.113257544717188
      ],
      [
        "▁tôn",
        -9.113874223407867
      ],
      [
        "▁khuyên",
        -9.11397826690012
      ],
      [
        "▁dung",
        -9.115320005563118
      ],
      [
        "ích",
        -9.118472463179666
      ],
      [
        "▁sổ",
        -9.11882866488808
      ],
      [
        "ầ",
        -9.11968218736138
      ],
      [
        "▁kê",
        -9.119791148794478
      ],
      [
        "▁rằng",
        -9.121035118763954
      ],
      [
        "▁phút",
        -9.12228773716506
      ],
      [
        "▁full",
        -9.122867843173644
      ],
      [
        "▁tầng",
        -9.124506918759792
      ],
      [
        "▁online",
        -9.124583093548544
      ],
      [
        "▁đào",
        -9.12594753246224
      ],
      [
        "▁simp",
        -9.12606503058186
      ],
      [
        "▁lộ",
        -9.128086201142894
      ],
      [
        "▁gói",
        -9.128624902397013
      ],
      [
        "▁dở",
        -9.130465563883163
      ],
      [
        "▁đô",
        -9.13529388598053
      ],
      [
        "▁giọng",
        -9.13612314063569
      ],
      [
        "▁nấu",
        -9.136233324401768
      ],
      [
        "▁khôn",
        -9.13702606629878
      ],
      [
        "▁thợ",
        -9.14021399761566
      ],
      [
        "▁liền",
        -9.14151321051298
      ],
      [
        "▁vượt",
        -9.14171569888625
      ],
      [
        "▁phạt",
        -9.142331399416888
      ],
      [
        "▁mẫu",
        -9.14272296624948
      ],
      [
        "▁gắng",
        -9.146731682890296
      ],
      [
        "▁chap",
        -9.146815073176484
      ],
      [
        "▁ngta",
        -9.14835584642564
      ],
      [
        "▁đập",
        -9.148688852388604
      ],
      [
        "▁đeo",
        -9.148964012642942
      ],
      [
        "▁thao",
        -9.149534194670506
      ],
      [
        "▁sâu",
        -9.150928529904762
      ],
      [
        "▁tiệm",
        -9.15271270496808
      ],
      [
        "▁cmn",
        -9.152815595816758
      ],
      [
        "▁thậm",
        -9.155294835853685
      ],
      [
        "▁nhớt",
        -9.15684670668709
      ],
      [
        "▁khăn",
        -9.15936182917121
      ],
      [
        "▁tỏ",
        -9.162080158793534
      ],
      [
        "▁chảy",
        -9.162197631997111
      ],
      [
        "▁đống",
        -9.162650592119531
      ],
      [
        "▁lông",
        -9.16347237095926
      ],
      [
        "▁cứng",
        -9.164172624166945
      ],
      [
        "▁nốt",
        -9.16486977072068
      ],
      [
        "▁cày",
        -9.166829667644748
      ],
      [
        "▁trâu",
        -9.168373269424784
      ],
      [
        "▁ép",
        -9.16865076378413
      ],
      [
        "▁trốn",
        -9.16878134816974
      ],
      [
        "▁hồng",
        -9.168814941869474
      ],
      [
        "▁tq",
        -9.17176435896159
      ],
      [
        "▁vùng",
        -9.175609932134254
      ],
      [
        "▁đảo",
        -9.181490985971294
      ],
      [
        "▁sút",
        -9.183871633123225
      ],
      [
        "▁tóc",
        -9.184333425556495
      ],
      [
        "▁sữa",
        -9.186666381983995
      ],
      [
        "▁bê",
        -9.18725345208614
      ],
      [
        "▁tố",
        -9.18978179201795
      ],
      [
        "▁kịp",
        -9.19046694455605
      ],
      [
        "▁cắm",
        -9.192211189538307
      ],
      [
        "▁thiện",
        -9.195256831702132
      ],
      [
        "▁kính",
        -9.19905749076436
      ],
      [
        "▁dành",
        -9.201877452803815
      ],
      [
        "▁kiệm",
        -9.20262437810094
      ],
      [
        "▁mẽo",
        -9.208549887417613
      ],
      [
        "▁khứ",
        -9.209878463725667
      ],
      [
        "▁cmt",
        -9.216996716054949
      ],
      [
        "▁bắn",
        -9.219944115174316
      ],
      [
        "ỏ",
        -9.220307273948787
      ],
      [
        "▁chỉnh",
        -9.220515986067458
      ],
      [
        "▁pin",
        -9.221781117756665
      ],
      [
        "▁ràng",
        -9.225911672443257
      ],
      [
        "▁khoe",
        -9.22708669260534
      ],
      [
        "▁lười",
        -9.22751406439142
      ],
      [
        "▁thả",
        -9.23146529509887
      ],
      [
        "▁dị",
        -9.231829709845067
      ],
      [
        "▁hộp",
        -9.233155349562647
      ],
      [
        "▁nhiệm",
        -9.23398920566362
      ],
      [
        "▁quà",
        -9.235728660619882
      ],
      [
        "▁the",
        -9.237610982271692
      ],
      [
        "▁trụ",
        -9.23919192305586
      ],
      [
        "▁hạnh",
        -9.239773197774776
      ],
      [
        "▁biên",
        -9.245090789535787
      ],
      [
        "▁kỷ",
        -9.24798492042432
      ],
      [
        "▁phía",
        -9.24884884651043
      ],
      [
        "▁căng",
        -9.25025376596872
      ],
      [
        "▁cánh",
        -9.250404793995347
      ],
      [
        "▁khóc",
        -9.25297464210109
      ],
      [
        "▁long",
        -9.262476925766148
      ],
      [
        "▁mừng",
        -9.264159427242143
      ],
      [
        "▁lẫn",
        -9.266883864703816
      ],
      [
        "▁thoát",
        -9.269448911345185
      ],
      [
        "▁lỡ",
        -9.27052866111944
      ],
      [
        "ị",
        -9.271984881663924
      ],
      [
        "▁lưng",
        -9.272978616000882
      ],
      [
        "▁tuy",
        -9.273561383736311
      ],
      [
        "▁lôi",
        -9.275190859016568
      ],
      [
        "▁xếp",
        -9.277068218245274
      ],
      [
        "▁bia",
        -9.282538284047003
      ],
      [
        "▁bá",
        -9.283810705712618
      ],
      [
        "▁xịn",
        -9.285359682840983
      ],
      [
        "▁dữ",
        -9.285736993372652
      ],
      [
        "▁khen",
        -9.286449934502595
      ],
      [
        "▁man",
        -9.287630229593466
      ],
      [
        "▁niềm",
        -9.288282302717104
      ],
      [
        "▁ngọt",
        -9.288406676506014
      ],
      [
        "▁shop",
        -9.288452036531996
      ],
      [
        "▁trầm",
        -9.289335769035556
      ],
      [
        "▁phận",
        -9.290287498911184
      ],
      [
        "▁vẽ",
        -9.290341936616713
      ],
      [
        "▁thiệt",
        -9.29533208465818
      ],
      [
        "▁ưng",
        -9.29585567580962
      ],
      [
        "▁mò",
        -9.297189956337554
      ],
      [
        "▁vực",
        -9.297873205280055
      ],
      [
        "▁chợ",
        -9.298125662762006
      ],
      [
        "▁vịt",
        -9.29841698252111
      ],
      [
        "▁dương",
        -9.299724991493196
      ],
      [
        "▁vác",
        -9.301273882223532
      ],
      [
        "▁di",
        -9.301458780165529
      ],
      [
        "▁vớ",
        -9.301600232925116
      ],
      [
        "▁mát",
        -9.301809569800684
      ],
      [
        "▁trộm",
        -9.302494227555687
      ],
      [
        "▁trạng",
        -9.304121130128374
      ],
      [
        "▁bụng",
        -9.305249018706986
      ],
      [
        "▁luyện",
        -9.306146684089889
      ],
      [
        "▁dừng",
        -9.30745094195002
      ],
      [
        "▁hỏng",
        -9.30803963796708
      ],
      [
        "▁miếng",
        -9.309039207620064
      ],
      [
        "▁chữa",
        -9.30937550652071
      ],
      [
        "▁chốt",
        -9.310634160219628
      ],
      [
        "▁xung",
        -9.310664132695374
      ],
      [
        "▁đẳng",
        -9.312158121388045
      ],
      [
        "▁nhàng",
        -9.314087465224828
      ],
      [
        "▁đích",
        -9.316170522978783
      ],
      [
        "▁địch",
        -9.317718348314056
      ],
      [
        "▁phù",
        -9.3178743805957
      ],
      [
        "▁kè",
        -9.320360772674414
      ],
      [
        "▁mắn",
        -9.320569502449525
      ],
      [
        "▁bảng",
        -9.32096621741436
      ],
      [
        "$",
        -9.322786465332188
      ],
      [
        "▁ghế",
        -9.32386359700678
      ],
      [
        "▁xứ",
        -9.325939792359716
      ],
      [
        "▁đương",
        -9.327508050717435
      ],
      [
        ";",
        -9.327880461869398
      ],
      [
        "▁thà",
        -9.329543739495262
      ],
      [
        "▁sắc",
        -9.32970235736928
      ],
      [
        "▁đạt",
        -9.331468958331664
      ],
      [
        "▁đê",
        -9.332196909588184
      ],
      [
        "▁gỡ",
        -9.333990365341537
      ],
      [
        "▁sóc",
        -9.334085770593704
      ],
      [
        "▁code",
        -9.334193763751127
      ],
      [
        "▁ngữ",
        -9.334892769751074
      ],
      [
        "▁đù",
        -9.335645133143242
      ],
      [
        "▁test",
        -9.341454846345192
      ],
      [
        "▁mềm",
        -9.3433119204187
      ],
      [
        "▁rau",
        -9.343878703339517
      ],
      [
        "▁kim",
        -9.344427933416414
      ],
      [
        "▁quý",
        -9.345774919921643
      ],
      [
        "▁cafe",
        -9.34632738788961
      ],
      [
        "▁nắm",
        -9.346379444172143
      ],
      [
        "▁nhục",
        -9.34744709478259
      ],
      [
        "▁chặt",
        -9.35081533498694
      ],
      [
        "▁ngờ",
        -9.350905496759667
      ],
      [
        "▁real",
        -9.353059030376082
      ],
      [
        "▁chiếc",
        -9.35488037225172
      ],
      [
        "▁gọn",
        -9.35503813278146
      ],
      [
        "▁hãy",
        -9.355909577364896
      ],
      [
        "▁cắn",
        -9.357384720691313
      ],
      [
        "▁sài",
        -9.357481766221497
      ],
      [
        "▁dựa",
        -9.357672879405492
      ],
      [
        "▁mượn",
        -9.358863005511544
      ],
      [
        "▁bú",
        -9.359901100735655
      ],
      [
        "▁đoàn",
        -9.360551755956182
      ],
      [
        "▁đảm",
        -9.361042379866532
      ],
      [
        "▁thơm",
        -9.362023920059771
      ],
      [
        "▁gõ",
        -9.36542524087229
      ],
      [
        "▁free",
        -9.366232966272769
      ],
      [
        "▁si",
        -9.367401464976808
      ],
      [
        "▁ngôn",
        -9.367470639083388
      ],
      [
        "▁tắm",
        -9.367509122470228
      ],
      [
        "▁la",
        -9.369356994578729
      ],
      [
        "▁bởi",
        -9.372223259663494
      ],
      [
        "▁thư",
        -9.373632217952728
      ],
      [
        "▁sa",
        -9.374665592212274
      ],
      [
        "▁tha",
        -9.375379028594097
      ],
      [
        "▁xóm",
        -9.377847956019032
      ],
      [
        "▁nền",
        -9.37854699766567
      ],
      [
        "▁góc",
        -9.379175010056734
      ],
      [
        "▁đuổi",
        -9.380180349510251
      ],
      [
        "▁túc",
        -9.380958478135945
      ],
      [
        "▁gạch",
        -9.381296984298096
      ],
      [
        "ụ",
        -9.381356213524423
      ],
      [
        "▁phú",
        -9.381543286346506
      ],
      [
        "▁bổ",
        -9.381725473866569
      ],
      [
        "▁nông",
        -9.381892061300292
      ],
      [
        "▁tiêm",
        -9.38232798656205
      ],
      [
        "w",
        -9.382901439983096
      ],
      [
        "▁lựa",
        -9.383717228895472
      ],
      [
        "▁đài",
        -9.384640836512956
      ],
      [
        "▁mèo",
        -9.385892139560008
      ],
      [
        "▁bẩn",
        -9.386575121819744
      ],
      [
        "▁khủng",
        -9.388230920505464
      ],
      [
        "▁đứt",
        -9.389956946398533
      ],
      [
        "▁miễn",
        -9.390063674230593
      ],
      [
        "▁xui",
        -9.39270292595802
      ],
      [
        "▁thoảng",
        -9.392719522348628
      ],
      [
        "▁nguy",
        -9.393849070712625
      ],
      [
        "▁nghiện",
        -9.394818355880265
      ],
      [
        "▁ngắn",
        -9.3959484546228
      ],
      [
        "▁tóm",
        -9.398029264174122
      ],
      [
        "▁ngã",
        -9.400385824276023
      ],
      [
        "▁vin",
        -9.401405476536665
      ],
      [
        "▁trưa",
        -9.401506206158114
      ],
      [
        "▁trôi",
        -9.402212262267565
      ],
      [
        "▁dấu",
        -9.40330454061186
      ],
      [
        "▁trì",
        -9.403341675614756
      ],
      [
        "▁nắng",
        -9.403438049093705
      ],
      [
        "▁trà",
        -9.406269519186012
      ],
      [
        "▁auto",
        -9.407909501185303
      ],
      [
        "▁lễ",
        -9.413471963415796
      ],
      [
        "▁lọc",
        -9.419690828250149
      ],
      [
        "▁miệng",
        -9.420321336504
      ],
      [
        "▁tiểu",
        -9.42072420550089
      ],
      [
        "▁cú",
        -9.421135041037644
      ],
      [
        "▁cung",
        -9.422770773922087
      ],
      [
        "▁phổ",
        -9.423272191592384
      ],
      [
        "▁chu",
        -9.424911247468176
      ],
      [
        "▁hồn",
        -9.426256274354552
      ],
      [
        "ống",
        -9.426587891754432
      ],
      [
        "▁xíu",
        -9.426619693238235
      ],
      [
        "▁bát",
        -9.426855423915129
      ],
      [
        "▁thận",
        -9.429938492182371
      ],
      [
        "▁tuyệt",
        -9.43329016462908
      ],
      [
        "▁điên",
        -9.437580501552382
      ],
      [
        "▁bồ",
        -9.439892289839207
      ],
      [
        "▁cháy",
        -9.441374999899924
      ],
      [
        "▁miên",
        -9.441820694707811
      ],
      [
        "▁web",
        -9.443374276096227
      ],
      [
        "▁muộn",
        -9.447353867163706
      ],
      [
        "▁lùn",
        -9.448661675341055
      ],
      [
        "▁đậu",
        -9.450184140471787
      ],
      [
        "▁review",
        -9.451783157386698
      ],
      [
        "▁khúc",
        -9.453172411343449
      ],
      [
        "▁khoẻ",
        -9.455102386884567
      ],
      [
        "▁cò",
        -9.455770358467207
      ],
      [
        "▁chấm",
        -9.45696542849772
      ],
      [
        "ộ",
        -9.457645917366696
      ],
      [
        "▁lượt",
        -9.457666569684212
      ],
      [
        "▁tinder",
        -9.457861235828316
      ],
      [
        "▁ngoái",
        -9.458525534984911
      ],
      [
        "hôi",
        -9.459634790397976
      ],
      [
        "▁rủ",
        -9.460812652854813
      ],
      [
        "▁đàng",
        -9.461639339431525
      ],
      [
        "▁youtube",
        -9.462144813684532
      ],
      [
        "▁túi",
        -9.462679283277382
      ],
      [
        "▁chừng",
        -9.462866603186097
      ],
      [
        "▁tuỳ",
        -9.46326861170826
      ],
      [
        "▁nghi",
        -9.463405800741606
      ],
      [
        "▁ngáo",
        -9.463413345908414
      ],
      [
        "▁đột",
        -9.46388020923943
      ],
      [
        "▁tung",
        -9.464757868698143
      ],
      [
        "▁chào",
        -9.465754246790205
      ],
      [
        "▁kín",
        -9.4684225517701
      ],
      [
        "▁lăn",
        -9.47027286778282
      ],
      [
        "▁thanks",
        -9.471255794140763
      ],
      [
        "▁súc",
        -9.472378236521388
      ],
      [
        "▁gắn",
        -9.472419427876517
      ],
      [
        "▁hấp",
        -9.4741399861195
      ],
      [
        "▁mít",
        -9.476893673791324
      ],
      [
        "▁sạc",
        -9.478064181213592
      ],
      [
        "▁google",
        -9.479955146856826
      ],
      [
        "▁giật",
        -9.481246765048647
      ],
      [
        "▁bô",
        -9.481594830998093
      ],
      [
        "▁hè",
        -9.483789697014272
      ],
      [
        "▁tròn",
        -9.485098614749944
      ],
      [
        "▁acc",
        -9.485724998791822
      ],
      [
        "▁vote",
        -9.48591074809918
      ],
      [
        "▁khô",
        -9.488252667135557
      ],
      [
        "▁khéo",
        -9.4887428005084
      ],
      [
        "▁chạm",
        -9.488813873668253
      ],
      [
        "▁hữu",
        -9.49062576551932
      ],
      [
        "▁bro",
        -9.492951681537692
      ],
      [
        "ều",
        -9.493086653451927
      ],
      [
        "▁khóa",
        -9.495023103935964
      ],
      [
        "▁hầu",
        -9.495388005409804
      ],
      [
        "▁be",
        -9.497027345894027
      ],
      [
        "▁thưởng",
        -9.4988966499565
      ],
      [
        "▁phán",
        -9.501412053557225
      ],
      [
        "▁ship",
        -9.504476411067342
      ],
      [
        "▁hlv",
        -9.51052851006544
      ],
      [
        "▁tắc",
        -9.510769525305466
      ],
      [
        "▁cải",
        -9.511770049970233
      ],
      [
        "▁thượng",
        -9.516745962446093
      ],
      [
        "▁covid",
        -9.518464389797224
      ],
      [
        "▁comment",
        -9.520571619734984
      ],
      [
        "▁mõm",
        -9.52097749540846
      ],
      [
        "~",
        -9.522731089335233
      ],
      [
        "▁vỡ",
        -9.522837986613654
      ],
      [
        "▁bi",
        -9.524464413215444
      ],
      [
        "▁cặp",
        -9.525102310456775
      ],
      [
        "▁nộp",
        -9.52901134524912
      ],
      [
        "▁đùa",
        -9.530780989458076
      ],
      [
        "▁thở",
        -9.5313363298735
      ],
      [
        "▁nét",
        -9.533530373331237
      ],
      [
        "▁biểu",
        -9.536361980809993
      ],
      [
        "▁chim",
        -9.536487115865814
      ],
      [
        "▁lợn",
        -9.53758223677474
      ],
      [
        "▁loser",
        -9.53987496749814
      ],
      [
        "▁dáng",
        -9.53994503839125
      ],
      [
        "▁chuyền",
        -9.540573477252453
      ],
      [
        "▁quận",
        -9.543207029890066
      ],
      [
        "▁tướng",
        -9.545112270738542
      ],
      [
        "▁giết",
        -9.5469742301432
      ],
      [
        "▁chui",
        -9.549131082888035
      ],
      [
        "▁tim",
        -9.54951389118033
      ],
      [
        "▁ỉa",
        -9.550088310646624
      ],
      [
        "▁canh",
        -9.550240375513402
      ],
      [
        "▁mật",
        -9.551530823699194
      ],
      [
        "▁bại",
        -9.551541086926544
      ],
      [
        "▁than",
        -9.552202380272687
      ],
      [
        "▁thù",
        -9.553722870805869
      ],
      [
        "▁mù",
        -9.555770028559776
      ],
      [
        "▁chóng",
        -9.55820218808378
      ],
      [
        "▁láo",
        -9.55876729570592
      ],
      [
        "▁can",
        -9.56011881663621
      ],
      [
        "▁hiếm",
        -9.5616620280634
      ],
      [
        "▁wc",
        -9.562644917310736
      ],
      [
        "▁khảo",
        -9.565887170285558
      ],
      [
        "▁giày",
        -9.567858263955529
      ],
      [
        "▁hào",
        -9.569022592711898
      ],
      [
        "▁tường",
        -9.569909260947217
      ],
      [
        "▁vứt",
        -9.57338840309786
      ],
      [
        "▁heo",
        -9.57419208071014
      ],
      [
        "▁bóp",
        -9.575920845548003
      ],
      [
        "▁cám",
        -9.579098167063943
      ],
      [
        "▁tấn",
        -9.583987835062011
      ],
      [
        "▁chặn",
        -9.584338220462191
      ],
      [
        "▁gánh",
        -9.585806989616044
      ],
      [
        "▁xứng",
        -9.590389866964829
      ],
      [
        "▁nỗi",
        -9.59075598099394
      ],
      [
        "▁tân",
        -9.591323457265466
      ],
      [
        "▁kênh",
        -9.592843314587553
      ],
      [
        "▁đỗ",
        -9.593094628530483
      ],
      [
        "▁dán",
        -9.59418043105013
      ],
      [
        "▁tít",
        -9.594401419310651
      ],
      [
        "▁nghiên",
        -9.595685570606411
      ],
      [
        "▁trứng",
        -9.59767238670094
      ],
      [
        "▁múi",
        -9.597906156739269
      ],
      [
        "▁đần",
        -9.600283156138923
      ],
      [
        "▁gay",
        -9.600861270828428
      ],
      [
        "▁mảnh",
        -9.606366157635728
      ],
      [
        "▁đua",
        -9.606801668326131
      ],
      [
        "▁cua",
        -9.609696017830638
      ],
      [
        "▁cập",
        -9.610452765290228
      ],
      [
        "▁content",
        -9.610726188088323
      ],
      [
        "▁thúc",
        -9.611233265935008
      ],
      [
        "▁bầu",
        -9.612206727165937
      ],
      [
        "▁bền",
        -9.612220678915907
      ],
      [
        "▁gớm",
        -9.61302496656544
      ],
      [
        "▁hiền",
        -9.613490045608998
      ],
      [
        "▁gấu",
        -9.622505575697776
      ],
      [
        "▁trần",
        -9.62408138064256
      ],
      [
        "▁khiến",
        -9.624484179536664
      ],
      [
        "▁thăm",
        -9.625898234642056
      ],
      [
        "▁sàn",
        -9.6270133346664
      ],
      [
        "▁lãnh",
        -9.62779901199272
      ],
      [
        "▁rời",
        -9.628272954851058
      ],
      [
        "▁nồi",
        -9.631025180273603
      ],
      [
        "▁bày",
        -9.631667356770633
      ],
      [
        "▁chớ",
        -9.632217786726557
      ],
      [
        "▁hương",
        -9.632349054875991
      ],
      [
        "▁bơm",
        -9.637024767577856
      ],
      [
        "▁trồng",
        -9.637679933785718
      ],
      [
        "▁trùng",
        -9.641558663824329
      ],
      [
        "▁thiệu",
        -9.647328776525953
      ],
      [
        "▁thổi",
        -9.64904874361254
      ],
      [
        "▁móc",
        -9.649605162826967
      ],
      [
        "▁giai",
        -9.650576420785969
      ],
      [
        "ước",
        -9.65098989231509
      ],
      [
        "▁dứt",
        -9.652566669077672
      ],
      [
        "▁hoà",
        -9.653768843122071
      ],
      [
        "▁xuyên",
        -9.655380264119149
      ],
      [
        "▁hùng",
        -9.656189865166915
      ],
      [
        "▁xảy",
        -9.656742844167134
      ],
      [
        "▁tịch",
        -9.657018034254977
      ],
      [
        "▁đam",
        -9.658012503110395
      ],
      [
        "▁say",
        -9.658777438129336
      ],
      [
        "▁treo",
        -9.659386194300296
      ],
      [
        "▁win",
        -9.66009149899222
      ],
      [
        "▁xả",
        -9.66023896028459
      ],
      [
        "▁phủ",
        -9.660314286047376
      ],
      [
        "▁vai",
        -9.660913393304355
      ],
      [
        "▁cứt",
        -9.662381858694069
      ],
      [
        "▁mỏi",
        -9.664434358219486
      ],
      [
        "▁tĩnh",
        -9.6647807891893
      ],
      [
        "em",
        -9.666600952982543
      ],
      [
        "▁lòi",
        -9.667531274905524
      ],
      [
        "▁dày",
        -9.668477638696384
      ],
      [
        "▁loa",
        -9.668898417555036
      ],
      [
        "▁gợi",
        -9.670479679645496
      ],
      [
        "▁dưng",
        -9.6738415932038
      ],
      [
        "▁cướp",
        -9.674182576704386
      ],
      [
        "▁dõ",
        -9.674534803522452
      ],
      [
        "thu",
        -9.67513552863648
      ],
      [
        "▁tan",
        -9.675845099855232
      ],
      [
        "▁dàng",
        -9.676177939758864
      ],
      [
        "ỉ",
        -9.676937060726132
      ],
      [
        "▁thuận",
        -9.677171372561832
      ],
      [
        "▁topic",
        -9.680597532395714
      ],
      [
        "▁gạo",
        -9.681036381575131
      ],
      [
        "▁buộc",
        -9.681505433607562
      ],
      [
        "▁thắc",
        -9.681798355427722
      ],
      [
        "▁nhan",
        -9.682332568489697
      ],
      [
        "▁hoài",
        -9.682829092080116
      ],
      [
        "▁vần",
        -9.683854768044167
      ],
      [
        "▁bấm",
        -9.685197256134431
      ],
      [
        "▁lẻ",
        -9.686112687750372
      ],
      [
        "▁tươi",
        -9.68954825818548
      ],
      [
        "▁hoạch",
        -9.69156079538071
      ],
      [
        "▁tạ",
        -9.696069605313555
      ],
      [
        "▁đốt",
        -9.69859463602354
      ],
      [
        "▁show",
        -9.69911859422152
      ],
      [
        "▁oto",
        -9.69963627449505
      ],
      [
        "▁buôn",
        -9.700214157433942
      ],
      [
        "▁cọc",
        -9.702022653336268
      ],
      [
        "▁soát",
        -9.70321760562958
      ],
      [
        "▁ninh",
        -9.703883591809028
      ],
      [
        "▁lối",
        -9.70459996844929
      ],
      [
        "▁iphone",
        -9.70490718144436
      ],
      [
        "▁che",
        -9.705780360969516
      ],
      [
        "▁max",
        -9.70889047158524
      ],
      [
        "▁điệ",
        -9.711108666804238
      ],
      [
        "▁béo",
        -9.711668336658864
      ],
      [
        "▁gỗ",
        -9.71393291753903
      ],
      [
        "▁xuân",
        -9.7151700654614
      ],
      [
        "▁tấm",
        -9.716742162879765
      ],
      [
        "▁đói",
        -9.717717513730948
      ],
      [
        "▁nhá",
        -9.719483702878422
      ],
      [
        "▁xịt",
        -9.722994074436274
      ],
      [
        "▁chè",
        -9.723033586921348
      ],
      [
        "▁phanh",
        -9.723347847211448
      ],
      [
        "▁thí",
        -9.723814950496656
      ],
      [
        "▁co",
        -9.724690759921062
      ],
      [
        "▁rơi",
        -9.72603726754124
      ],
      [
        "▁khắc",
        -9.726817537688548
      ],
      [
        "▁hên",
        -9.72725608790673
      ],
      [
        "▁hiệp",
        -9.733156893304177
      ],
      [
        "▁sml",
        -9.734992572695043
      ],
      [
        "▁khinh",
        -9.73573014795681
      ],
      [
        "▁mịa",
        -9.736162020878862
      ],
      [
        "▁kho",
        -9.740005249204566
      ],
      [
        "▁thẩm",
        -9.740317085323648
      ],
      [
        "ấp",
        -9.740511991927375
      ],
      [
        "▁fake",
        -9.741737921235387
      ],
      [
        "▁toang",
        -9.742541145244545
      ],
      [
        "▁viêm",
        -9.7428078393902
      ],
      [
        "▁xàm",
        -9.74391017385703
      ],
      [
        "▁đĩ",
        -9.745394152073596
      ],
      [
        "▁mảng",
        -9.746136650884353
      ],
      [
        "▁bôi",
        -9.747467954206249
      ],
      [
        "▁khán",
        -9.74839791347729
      ],
      [
        "▁date",
        -9.748838697975762
      ],
      [
        "▁phóng",
        -9.749210972470712
      ],
      [
        "▁ngộ",
        -9.749555293237732
      ],
      [
        "▁dí",
        -9.75054381727089
      ],
      [
        "▁vua",
        -9.750673625841303
      ],
      [
        "▁phường",
        -9.75122221061428
      ],
      [
        "đằng",
        -9.75235773795961
      ],
      [
        "▁ráng",
        -9.756657967283363
      ],
      [
        "▁bơi",
        -9.758460780355811
      ],
      [
        "▁dàn",
        -9.758836961757236
      ],
      [
        "▁dạ",
        -9.758877127657426
      ],
      [
        "▁nghiêm",
        -9.759287973835978
      ],
      [
        "▁tộc",
        -9.763962965091803
      ],
      [
        "▁đụng",
        -9.769735025351586
      ],
      [
        "ừ",
        -9.770003659298844
      ],
      [
        "▁tôm",
        -9.77050694827266
      ],
      [
        "▁your",
        -9.771410835649474
      ],
      [
        "▁khối",
        -9.771614591874386
      ],
      [
        "▁phở",
        -9.7721353941992
      ],
      [
        "▁bờ",
        -9.77304257439937
      ],
      [
        "▁dọn",
        -9.77324411775607
      ],
      [
        "▁card",
        -9.775440622310798
      ],
      [
        "▁lách",
        -9.775622590348746
      ],
      [
        "▁non",
        -9.775625721580315
      ],
      [
        "▁dao",
        -9.776423550456576
      ],
      [
        "▁clb",
        -9.77694898366287
      ],
      [
        "▁gym",
        -9.779763772752954
      ],
      [
        "▁yahoo",
        -9.779827623029004
      ],
      [
        "▁húp",
        -9.782005170543377
      ],
      [
        "▁dẩm",
        -9.782243196972551
      ],
      [
        "▁lệc",
        -9.783774725628025
      ],
      [
        "▁cmnl",
        -9.785008871532948
      ],
      [
        "con",
        -9.785036563158076
      ],
      [
        "▁võ",
        -9.785496406124723
      ],
      [
        "▁tuyến",
        -9.787104597715402
      ],
      [
        "▁núi",
        -9.79299771665295
      ],
      [
        "&",
        -9.794863287577328
      ],
      [
        "▁chấn",
        -9.794936275914951
      ],
      [
        "▁chén",
        -9.795819280529605
      ],
      [
        "▁khắp",
        -9.7961897730011
      ],
      [
        "▁mod",
        -9.796715552982068
      ],
      [
        "▁pen",
        -9.798128414931854
      ],
      [
        "▁giang",
        -9.802372333899108
      ],
      [
        "▁ném",
        -9.802377747058324
      ],
      [
        "▁gòn",
        -9.802591708406364
      ],
      [
        "▁chối",
        -9.802879864284826
      ],
      [
        "ánh",
        -9.804718620065715
      ],
      [
        "▁mông",
        -9.80531653743019
      ],
      [
        "▁dẹp",
        -9.80688809042504
      ],
      [
        "▁thread",
        -9.807035868000249
      ],
      [
        "▁vân",
        -9.808904941636396
      ],
      [
        "▁mỡ",
        -9.810502711918923
      ],
      [
        "▁su",
        -9.811312924484456
      ],
      [
        "▁ngoan",
        -9.81291705266776
      ],
      [
        "▁nhảm",
        -9.814412749278636
      ],
      [
        "▁hốt",
        -9.81537623331101
      ],
      [
        "▁ro",
        -9.81554938453698
      ],
      [
        "▁đái",
        -9.81602423997604
      ],
      [
        "▁thơ",
        -9.818196072838688
      ],
      [
        "▁lộn",
        -9.822519305760752
      ],
      [
        "▁bãi",
        -9.8260015201555
      ],
      [
        "▁ngàn",
        -9.8264625141163
      ],
      [
        "▁honda",
        -9.82735312899371
      ],
      [
        "▁mập",
        -9.827729340839188
      ],
      [
        "tháng",
        -9.828467762502132
      ],
      [
        "▁cẩn",
        -9.830396271979192
      ],
      [
        "▁cậu",
        -9.830725349536117
      ],
      [
        "▁khung",
        -9.832983354532915
      ],
      [
        "▁dơ",
        -9.833698963464409
      ],
      [
        "▁mãn",
        -9.833912371088696
      ],
      [
        "▁phiên",
        -9.834289219245148
      ],
      [
        "▁thụ",
        -9.835866334508449
      ],
      [
        "▁ruột",
        -9.836408408693291
      ],
      [
        "▁nguyễn",
        -9.842169328731488
      ],
      [
        "▁trống",
        -9.842190643039942
      ],
      [
        "▁khiển",
        -9.842563965523052
      ],
      [
        "▁dĩ",
        -9.84293071898578
      ],
      [
        "▁tu",
        -9.843583043539674
      ],
      [
        "▁chiếm",
        -9.847173305733508
      ],
      [
        "▁nhiễm",
        -9.847713879852313
      ],
      [
        "▁băng",
        -9.84874586307756
      ],
      [
        "▁out",
        -9.849073991669686
      ],
      [
        "▁ola",
        -9.853596498992792
      ],
      [
        "▁kẻ",
        -9.856393093582192
      ],
      [
        "▁lây",
        -9.858330479958171
      ],
      [
        "▁nga",
        -9.860618991351934
      ],
      [
        "▁xương",
        -9.86087781262038
      ],
      [
        "▁ngó",
        -9.861158678395128
      ],
      [
        "ự",
        -9.862267801379542
      ],
      [
        "▁lọ",
        -9.862688777374334
      ],
      [
        "▁bí",
        -9.863222613239296
      ],
      [
        "▁giám",
        -9.865852129527456
      ],
      [
        "▁họp",
        -9.868131197965264
      ],
      [
        "▁hủy",
        -9.871304886724182
      ],
      [
        "▁thỉn",
        -9.877109601291888
      ],
      [
        "▁thăng",
        -9.877226437626035
      ],
      [
        "▁search",
        -9.878182744958988
      ],
      [
        "▁lưới",
        -9.879684280058244
      ],
      [
        "▁thánh",
        -9.8797611433097
      ],
      [
        "▁phế",
        -9.88023751108384
      ],
      [
        "▁bám",
        -9.881264031140184
      ],
      [
        "▁sung",
        -9.881813178697126
      ],
      [
        "▁group",
        -9.88295908240256
      ],
      [
        "▁thải",
        -9.883723994851872
      ],
      [
        "▁lê",
        -9.88661699580858
      ],
      [
        "▁like",
        -9.886923544797446
      ],
      [
        "không",
        -9.887127541683494
      ],
      [
        "▁email",
        -9.887238725860248
      ],
      [
        "▁cử",
        -9.887437340961418
      ],
      [
        "▁cup",
        -9.888021122429816
      ],
      [
        "▁sủa",
        -9.888082631718689
      ],
      [
        "▁oke",
        -9.890099655781524
      ],
      [
        "^",
        -9.890843041897076
      ],
      [
        "▁giã",
        -9.891548496474048
      ],
      [
        "▁đền",
        -9.891577742151751
      ],
      [
        "▁rùi",
        -9.892159696908235
      ],
      [
        "▁tháo",
        -9.892372493103194
      ],
      [
        "▁bụi",
        -9.892610320425716
      ],
      [
        "▁ngắm",
        -9.89439775243445
      ],
      [
        "▁leo",
        -9.895221826696892
      ],
      [
        "▁zalo",
        -9.895605007746065
      ],
      [
        "▁tồn",
        -9.895617914040573
      ],
      [
        "▁lửa",
        -9.895955070131498
      ],
      [
        "▁phỏng",
        -9.896109845102878
      ],
      [
        "▁nhịn",
        -9.89762494352726
      ],
      [
        "▁kẹt",
        -9.897649668167366
      ],
      [
        "▁kh",
        -9.900452444295045
      ],
      [
        "▁rưỡ",
        -9.902321646053991
      ],
      [
        "▁đụt",
        -9.905120478601
      ],
      [
        "▁kha",
        -9.905243656378246
      ],
      [
        "▁pass",
        -9.906270658821214
      ],
      [
        "▁cút",
        -9.906287409600395
      ],
      [
        "▁nhạt",
        -9.90671692655648
      ],
      [
        "▁lục",
        -9.907491659851832
      ],
      [
        "▁mòn",
        -9.908482708654011
      ],
      [
        "▁khoá",
        -9.911058571451642
      ],
      [
        "▁bét",
        -9.912213627898431
      ],
      [
        "▁huynh",
        -9.914676623342617
      ],
      [
        "▁thang",
        -9.91477637941247
      ],
      [
        "▁sdt",
        -9.914971971841318
      ],
      [
        "▁dốt",
        -9.915468215936324
      ],
      [
        "▁bún",
        -9.916103335224602
      ],
      [
        "▁rừng",
        -9.916186339262358
      ],
      [
        "▁bơ",
        -9.919384784070424
      ],
      [
        "▁soi",
        -9.920300314640292
      ],
      [
        "▁chuột",
        -9.920834900244357
      ],
      [
        "▁tủi",
        -9.920926303617676
      ],
      [
        "▁nhựa",
        -9.923537736286423
      ],
      [
        "▁huốn",
        -9.925170271115665
      ],
      [
        "▁lứa",
        -9.930775454204596
      ],
      [
        "▁bần",
        -9.930957870117114
      ],
      [
        "▁phiền",
        -9.93164493414146
      ],
      [
        "▁hít",
        -9.931884532806876
      ],
      [
        "▁hạt",
        -9.932164941682853
      ],
      [
        "▁nhét",
        -9.933317258276189
      ],
      [
        "▁phiếu",
        -9.936193757032928
      ],
      [
        "▁book",
        -9.93661361250692
      ],
      [
        "▁xách",
        -9.937650555998038
      ],
      [
        "▁share",
        -9.93790256235187
      ],
      [
        "▁page",
        -9.9391285265927
      ],
      [
        "▁ph",
        -9.939135918957582
      ],
      [
        "▁nhạy",
        -9.939520616073212
      ],
      [
        "▁sales",
        -9.940798285905348
      ],
      [
        "▁tri",
        -9.94135025330885
      ],
      [
        "▁tạp",
        -9.942508952020727
      ],
      [
        "▁côn",
        -9.942721237825603
      ],
      [
        "▁nạp",
        -9.943853147404369
      ],
      [
        "▁lốp",
        -9.944304603216636
      ],
      [
        "▁sóng",
        -9.945014790008694
      ],
      [
        "▁súng",
        -9.945574846574036
      ],
      [
        "▁nghị",
        -9.94847378379538
      ],
      [
        "▁zin",
        -9.9499953540061
      ],
      [
        "▁trạm",
        -9.950853671522992
      ],
      [
        "▁cùi",
        -9.950986471928074
      ],
      [
        "▁thủy",
        -9.952261290253611
      ],
      [
        "▁vẩn",
        -9.953550445729103
      ],
      [
        "▁lò",
        -9.9537800643242
      ],
      [
        "▁city",
        -9.954818425805705
      ],
      [
        "▁dăm",
        -9.955934591907658
      ],
      [
        "▁vặt",
        -9.958546861818132
      ],
      [
        "▁chịch",
        -9.95948680265895
      ],
      [
        "▁tún",
        -9.961634549178228
      ],
      [
        "’",
        -9.96212528006584
      ],
      [
        "▁tiktok",
        -9.963166102683497
      ],
      [
        "▁cáp",
        -9.965605876926045
      ],
      [
        "▁thai",
        -9.966172945993454
      ],
      [
        "▁đáp",
        -9.967906688575887
      ],
      [
        "▁khiếp",
        -9.968440339135933
      ],
      [
        "▁ole",
        -9.971226267666056
      ],
      [
        "▁tật",
        -9.971844379434833
      ],
      [
        "▁khởi",
        -9.973254458828826
      ],
      [
        "▁sốt",
        -9.975741137003622
      ],
      [
        "▁dồn",
        -9.975919408271343
      ],
      [
        "▁huyện",
        -9.976126091941222
      ],
      [
        "hận",
        -9.976958575427558
      ],
      [
        "▁update",
        -9.977481465525836
      ],
      [
        "▁lè",
        -9.978275086049509
      ],
      [
        "▁ván",
        -9.980007606640523
      ],
      [
        "▁chúa",
        -9.98037357952174
      ],
      [
        "▁xu",
        -9.98293084521041
      ],
      [
        "▁ngập",
        -9.983822307209582
      ],
      [
        "▁nhắm",
        -9.985075356958443
      ],
      [
        "▁haiz",
        -9.985422621281025
      ],
      [
        "▁lun",
        -9.98620734133634
      ],
      [
        "▁messi",
        -9.986243108605589
      ],
      [
        "▁mệnh",
        -9.9876871420711
      ],
      [
        "▁tông",
        -9.988022856012144
      ],
      [
        "▁spam",
        -9.98927314310662
      ],
      [
        "▁banh",
        -9.989332360930236
      ],
      [
        "▁pep",
        -9.989663508366966
      ],
      [
        "▁drop",
        -9.990778881762408
      ],
      [
        "▁hèn",
        -9.994175065797869
      ],
      [
        "▁thỏa",
        -9.99656454067513
      ],
      [
        "▁mớ",
        -9.996601190511468
      ],
      [
        "ẽ",
        -9.997534258794428
      ],
      [
        "▁vĩnh",
        -9.998660596893837
      ],
      [
        "▁lâm",
        -9.999420283246447
      ],
      [
        "▁pro",
        -10.001189643990465
      ],
      [
        "▁chat",
        -10.002615287471366
      ],
      [
        "▁nối",
        -10.004126496943666
      ],
      [
        "▁re",
        -10.005655813545037
      ],
      [
        "▁vội",
        -10.006722099673103
      ],
      [
        "▁ké",
        -10.006958103261027
      ],
      [
        "▁bếp",
        -10.008853409994872
      ],
      [
        "▁hãm",
        -10.00930967851263
      ],
      [
        "▁gen",
        -10.011152506430673
      ],
      [
        "▁trào",
        -10.011574920286028
      ],
      [
        "▁phối",
        -10.013623319815466
      ],
      [
        "gương",
        -10.015139070281377
      ],
      [
        "▁chiên",
        -10.01710953258386
      ],
      [
        "▁đế",
        -10.01791612504124
      ],
      [
        "▁rớt",
        -10.018350909664909
      ],
      [
        "▁tiệ",
        -10.019756703015934
      ],
      [
        "▁trư",
        -10.020155935563963
      ],
      [
        "▁đáy",
        -10.024419859649472
      ],
      [
        "▁gầm",
        -10.024697051259478
      ],
      [
        "▁deal",
        -10.026233073199569
      ],
      [
        "▁thoáng",
        -10.02632207549924
      ],
      [
        "▁điển",
        -10.026707899123409
      ],
      [
        "▁loz",
        -10.029174379523338
      ],
      [
        "▁nhấp",
        -10.029731316234804
      ],
      [
        "▁inbox",
        -10.029969538265028
      ],
      [
        "▁kịch",
        -10.03244666134078
      ],
      [
        "ẩu",
        -10.032523832467067
      ],
      [
        "ã",
        -10.033433460047911
      ],
      [
        "▁phấn",
        -10.033770220272896
      ],
      [
        "▁giường",
        -10.03431550179153
      ],
      [
        "▁thổ",
        -10.034834605578633
      ],
      [
        "▁idol",
        -10.035228805855033
      ],
      [
        "▁cúp",
        -10.0352728917428
      ],
      [
        "▁biện",
        -10.03726502879612
      ],
      [
        "▁xiên",
        -10.042397988956536
      ],
      [
        "▁winner",
        -10.04407808145948
      ],
      [
        "▁xuôi",
        -10.045718819826025
      ],
      [
        "▁họa",
        -10.045767729839412
      ],
      [
        "▁cường",
        -10.046441207309623
      ],
      [
        "▁duyên",
        -10.047529770902912
      ],
      [
        "▁bả",
        -10.048168384177549
      ],
      [
        "▁hoang",
        -10.048505557418553
      ],
      [
        "▁thùng",
        -10.049326792381535
      ],
      [
        "▁cấu",
        -10.049350213004752
      ],
      [
        "ung",
        -10.050661968287011
      ],
      [
        "▁haha",
        -10.05076339672518
      ],
      [
        "▁crush",
        -10.055741689613434
      ],
      [
        "▁đè",
        -10.055830074198107
      ],
      [
        "▁gan",
        -10.05591476124417
      ],
      [
        "▁sông",
        -10.05599299000755
      ],
      [
        "▁mụn",
        -10.056894199214726
      ],
      [
        "▁rách",
        -10.057159786004682
      ],
      [
        "▁úp",
        -10.05899958607836
      ],
      [
        "▁viettel",
        -10.062077374085266
      ],
      [
        "▁quote",
        -10.06229376715101
      ],
      [
        "▁liệt",
        -10.062653337820628
      ],
      [
        "▁hứa",
        -10.063635785090948
      ],
      [
        "▁thui",
        -10.06366519332036
      ],
      [
        "▁phốt",
        -10.067275572670953
      ],
      [
        "▁đếch",
        -10.06807322130378
      ],
      [
        "▁củng",
        -10.068244964656408
      ],
      [
        "▁bus",
        -10.071231085607687
      ],
      [
        "▁tiềm",
        -10.072667107029504
      ],
      [
        "▁chên",
        -10.073452112573646
      ],
      [
        "▁quang",
        -10.075597236412056
      ],
      [
        "▁muối",
        -10.076775077629604
      ],
      [
        "▁phò",
        -10.076788958140156
      ],
      [
        "▁trĩ",
        -10.07880363946588
      ],
      [
        "▁nãy",
        -10.078859872325973
      ],
      [
        "▁xạo",
        -10.079970959406587
      ],
      [
        "▁quất",
        -10.080237125048384
      ],
      [
        "▁ẩm",
        -10.082860728831278
      ],
      [
        "▁xoay",
        -10.083453192776233
      ],
      [
        "▁vất",
        -10.084064950450426
      ],
      [
        "▁đuối",
        -10.08456623978502
      ],
      [
        "▁dại",
        -10.08701189789778
      ],
      [
        "▁chiêu",
        -10.08709066322157
      ],
      [
        "▁bắp",
        -10.08815245935394
      ],
      [
        "▁huy",
        -10.09221632177572
      ],
      [
        "▁chăn",
        -10.092728491406444
      ],
      [
        "▁view",
        -10.093647360039904
      ],
      [
        "▁thói",
        -10.09673113620534
      ],
      [
        "▁tráng",
        -10.097049127556971
      ],
      [
        "▁rần",
        -10.09741755266874
      ],
      [
        "▁tẩy",
        -10.100481655558612
      ],
      [
        "▁váy",
        -10.102146618065037
      ],
      [
        "▁lĩnh",
        -10.102355765209184
      ],
      [
        "▁bóc",
        -10.102465428647706
      ],
      [
        "▁gáy",
        -10.10396876724255
      ],
      [
        "▁trump",
        -10.105388228468096
      ],
      [
        "▁combo",
        -10.108377768480064
      ],
      [
        "ẹ",
        -10.112234458688803
      ],
      [
        "▁vỏ",
        -10.112788918602892
      ],
      [
        "▁sgb",
        -10.11320696442903
      ],
      [
        "▁cột",
        -10.113277898479152
      ],
      [
        "▁să",
        -10.115477401505805
      ],
      [
        "▁lót",
        -10.117414323338894
      ],
      [
        "▁hao",
        -10.117501004796429
      ],
      [
        "▁xăm",
        -10.118295074855023
      ],
      [
        "▁chua",
        -10.119195265761112
      ],
      [
        "▁les",
        -10.119585981308504
      ],
      [
        "▁tụt",
        -10.121831196597896
      ],
      [
        "▁noel",
        -10.122287329087031
      ],
      [
        "▁đút",
        -10.122412943972638
      ],
      [
        "▁copy",
        -10.123095065287556
      ],
      [
        "▁phịc",
        -10.12340222420626
      ],
      [
        "▁khuyến",
        -10.126940385246076
      ],
      [
        "▁đốc",
        -10.12778450104278
      ],
      [
        "▁hot",
        -10.129433988309907
      ],
      [
        "▁lúa",
        -10.130063806960775
      ],
      [
        "▁dỗ",
        -10.13408400346395
      ],
      [
        "▁lầm",
        -10.134570356953962
      ],
      [
        "▁rành",
        -10.134790827020298
      ],
      [
        "▁quãng",
        -10.140176547208082
      ],
      [
        "▁mắm",
        -10.142296458702592
      ],
      [
        "▁lỏ",
        -10.14270266059602
      ],
      [
        "▁toy",
        -10.143245440315592
      ],
      [
        "▁giận",
        -10.14367619484224
      ],
      [
        "▁hehe",
        -10.143719650818584
      ],
      [
        "▁xạ",
        -10.144462723346695
      ],
      [
        "▁ngơ",
        -10.14483931955249
      ],
      [
        "▁best",
        -10.146267269607591
      ],
      [
        "▁sàng",
        -10.14718966406668
      ],
      [
        "▁sắm",
        -10.147508628916096
      ],
      [
        "▁hối",
        -10.149249990465878
      ],
      [
        "▁duyệt",
        -10.149467041860683
      ],
      [
        "▁vạn",
        -10.150382424744604
      ],
      [
        "▁nướng",
        -10.151473529462852
      ],
      [
        "ko",
        -10.152094653335851
      ],
      [
        "▁lùi",
        -10.152339794639603
      ],
      [
        "▁tái",
        -10.155009824084722
      ],
      [
        "▁rủi",
        -10.160367841451356
      ],
      [
        "▁sim",
        -10.16113387219665
      ],
      [
        "▁xí",
        -10.161134425697153
      ],
      [
        "▁quẹ",
        -10.161156530522836
      ],
      [
        "▁vf",
        -10.16190468034766
      ],
      [
        "▁vâng",
        -10.163279558147918
      ],
      [
        "▁đành",
        -10.163477015506828
      ],
      [
        "▁taxi",
        -10.164692776755077
      ],
      [
        "▁gầy",
        -10.165705235102651
      ],
      [
        "▁đú",
        -10.16685425519942
      ],
      [
        "▁táo",
        -10.169406589890148
      ],
      [
        "▁trọn",
        -10.170261722638546
      ],
      [
        "▁set",
        -10.173206224956235
      ],
      [
        "ũ",
        -10.17532374419857
      ],
      [
        "▁android",
        -10.175797656762365
      ],
      [
        "▁xoá",
        -10.177352922840122
      ],
      [
        "▁tạch",
        -10.17840510597634
      ],
      [
        "▁tua",
        -10.180576974015274
      ],
      [
        "▁bông",
        -10.18162878009564
      ],
      [
        "▁chậ",
        -10.183356872620754
      ],
      [
        "▁pháo",
        -10.185452111769964
      ],
      [
        "▁mộ",
        -10.185940463467944
      ],
      [
        "▁conan",
        -10.189260099616227
      ],
      [
        "nay",
        -10.192117126782424
      ],
      [
        "▁lú",
        -10.192848711658868
      ],
      [
        "▁you",
        -10.19285523849323
      ],
      [
        "▁facebook",
        -10.192925000884577
      ],
      [
        "▁nấy",
        -10.194958735354469
      ],
      [
        "▁chắp",
        -10.196389045951754
      ],
      [
        "▁nẵng",
        -10.197196334602785
      ],
      [
        "▁vướn",
        -10.197763172084944
      ],
      [
        "▁mười",
        -10.198014202746464
      ],
      [
        "▁thảo",
        -10.198145421021833
      ],
      [
        "▁rối",
        -10.198188605002963
      ],
      [
        "▁phèn",
        -10.199207103387288
      ],
      [
        "▁cốt",
        -10.200179832498437
      ],
      [
        "▁bin",
        -10.200517178727738
      ],
      [
        "▁vương",
        -10.20108292586303
      ],
      [
        "▁bạch",
        -10.201336172718367
      ],
      [
        "▁kiếp",
        -10.205610708384487
      ],
      [
        "▁trao",
        -10.20576187848464
      ],
      [
        "▁dò",
        -10.206799178179397
      ],
      [
        "▁khâ",
        -10.20884374787367
      ],
      [
        "▁nho",
        -10.20949042242251
      ],
      [
        "▁nhổ",
        -10.209924455269396
      ],
      [
        "▁thiểu",
        -10.21054828738671
      ],
      [
        "▁dọa",
        -10.213121106590943
      ],
      [
        "▁size",
        -10.214088764180453
      ],
      [
        "▁reup",
        -10.21411345589272
      ],
      [
        "▁sắt",
        -10.215450020638524
      ],
      [
        "▁alo",
        -10.21563184236848
      ],
      [
        "▁khịa",
        -10.21850670047272
      ],
      [
        "▁lon",
        -10.220145173392316
      ],
      [
        "▁trấn",
        -10.222443578793468
      ],
      [
        "▁vang",
        -10.224993582674108
      ],
      [
        "▁bla",
        -10.225400893089684
      ],
      [
        "▁lát",
        -10.226646959550113
      ],
      [
        "▁nít",
        -10.227220180277108
      ],
      [
        "▁barca",
        -10.227938760763015
      ],
      [
        "▁bực",
        -10.23084984646305
      ],
      [
        "▁thọ",
        -10.230919122880865
      ],
      [
        "▁vầy",
        -10.231487116560915
      ],
      [
        "▁vắng",
        -10.233642448266693
      ],
      [
        "▁reset",
        -10.235009968962888
      ],
      [
        "▁hnao",
        -10.236133243056807
      ],
      [
        "▁cau",
        -10.23631573402619
      ],
      [
        "còn",
        -10.236532975430045
      ],
      [
        "▁mũ",
        -10.236624316806015
      ],
      [
        "▁lặp",
        -10.23728104972753
      ],
      [
        "▁chuộn",
        -10.23896482568174
      ],
      [
        "▁song",
        -10.239149549564308
      ],
      [
        "▁hiến",
        -10.240917889650625
      ],
      [
        "▁park",
        -10.241434099307966
      ],
      [
        "▁ngứa",
        -10.242721935695858
      ],
      [
        "▁nghìn",
        -10.243064307480482
      ],
      [
        "▁nhở",
        -10.244609519598956
      ],
      [
        "▁please",
        -10.244662264043663
      ],
      [
        "▁tùng",
        -10.24532653488183
      ],
      [
        "▁bung",
        -10.24622010055507
      ],
      [
        "▁lận",
        -10.246520209133667
      ],
      [
        "▁mạt",
        -10.248709348269582
      ],
      [
        "▁anti",
        -10.249386469246828
      ],
      [
        "▁nút",
        -10.249719198889135
      ],
      [
        "▁psg",
        -10.250320730921285
      ],
      [
        "▁bèo",
        -10.252327201394095
      ],
      [
        "▁săn",
        -10.252443079653869
      ],
      [
        "ậ",
        -10.252834673726502
      ],
      [
        "▁tụ",
        -10.252850333985387
      ],
      [
        "▁cấn",
        -10.2531896869672
      ],
      [
        "▁loài",
        -10.253477578026796
      ],
      [
        "▁bột",
        -10.253509231310872
      ],
      [
        "▁ctac",
        -10.253768306875587
      ],
      [
        "▁lậu",
        -10.2551966033036
      ],
      [
        "▁gãy",
        -10.255553387805676
      ],
      [
        "▁múc",
        -10.256261998323696
      ],
      [
        "▁binh",
        -10.257956907604356
      ],
      [
        "▁rap",
        -10.258827322398313
      ],
      [
        "▁huyết",
        -10.258912722452823
      ],
      [
        "▁tuyên",
        -10.2589832914756
      ],
      [
        "▁thoái",
        -10.262661972939346
      ],
      [
        "▁le",
        -10.263355472092243
      ],
      [
        "ập",
        -10.265598329951665
      ],
      [
        "▁chạn",
        -10.2659149983072
      ],
      [
        "▁cổn",
        -10.266915659124669
      ],
      [
        "▁ex",
        -10.267448910001736
      ],
      [
        "▁giấu",
        -10.267515225277524
      ],
      [
        "▁tào",
        -10.267862058189326
      ],
      [
        "▁chang",
        -10.268051705655278
      ],
      [
        "▁logic",
        -10.268053595917412
      ],
      [
        "▁of",
        -10.2684919537557
      ],
      [
        "▁đĩa",
        -10.268608231430363
      ],
      [
        "▁bỉ",
        -10.270033922248052
      ],
      [
        "▁manh",
        -10.272749210513464
      ],
      [
        "▁chăng",
        -10.27277593367739
      ],
      [
        "▁problems",
        -10.27330355635551
      ],
      [
        "▁for",
        -10.273948326908023
      ],
      [
        "▁dev",
        -10.27440604170641
      ],
      [
        "▁skinne",
        -10.27819496492851
      ],
      [
        "▁khựa",
        -10.279203666088309
      ],
      [
        "▁đồn",
        -10.28040591911616
      ],
      [
        "▁tràn",
        -10.284380872427151
      ],
      [
        "▁lăng",
        -10.2857835852171
      ],
      [
        "▁chích",
        -10.286341262735249
      ],
      [
        "▁trêu",
        -10.28682941970034
      ],
      [
        "▁lủn",
        -10.286882062645718
      ],
      [
        "▁bự",
        -10.287093491515735
      ],
      [
        "▁thuần",
        -10.289185046603649
      ],
      [
        "▁ghẻ",
        -10.289218352724918
      ],
      [
        "▁tòa",
        -10.290211348678548
      ],
      [
        "▁boy",
        -10.290499574087406
      ],
      [
        "▁visa",
        -10.291028697266144
      ],
      [
        "▁ngực",
        -10.291048557178364
      ],
      [
        "▁bậy",
        -10.29127024358656
      ],
      [
        "▁phái",
        -10.291684953556738
      ],
      [
        "▁rep",
        -10.293173592266667
      ],
      [
        "▁hưu",
        -10.29588018901364
      ],
      [
        "▁dưa",
        -10.29687211680314
      ],
      [
        "▁đuôi",
        -10.297212742134567
      ],
      [
        "huyền",
        -10.299429316856322
      ],
      [
        "▁ngán",
        -10.300541079983116
      ],
      [
        "▁xá",
        -10.30196439354646
      ],
      [
        "▁diệt",
        -10.3035786540263
      ],
      [
        "▁xi",
        -10.304021157977337
      ],
      [
        "▁thảm",
        -10.304577242024866
      ],
      [
        "nhường",
        -10.30582494632087
      ],
      [
        "▁mực",
        -10.306565954352942
      ],
      [
        "▁sex",
        -10.306994354927223
      ],
      [
        "▁lưỡi",
        -10.310471665990308
      ],
      [
        "▁xế",
        -10.311676474424049
      ],
      [
        "▁trượt",
        -10.312136474529035
      ],
      [
        "▁thờ",
        -10.312989474042704
      ],
      [
        "▁vườn",
        -10.313493398122445
      ],
      [
        "▁ngón",
        -10.31725503367868
      ],
      [
        "▁mọc",
        -10.318095655330232
      ],
      [
        "▁khơi",
        -10.318849360634191
      ],
      [
        "▁ghé",
        -10.321881213453832
      ],
      [
        "▁trú",
        -10.3220980852349
      ],
      [
        "▁rốt",
        -10.322682918016053
      ],
      [
        "▁chay",
        -10.324459977654662
      ],
      [
        "▁lính",
        -10.324725023302896
      ],
      [
        "▁lau",
        -10.326432943631325
      ],
      [
        "▁sạn",
        -10.32679111604089
      ],
      [
        "▁cốp",
        -10.328181550781087
      ],
      [
        "▁đếm",
        -10.328352044545124
      ],
      [
        "▁gồm",
        -10.328443433792865
      ],
      [
        "▁đềm",
        -10.33023435104223
      ],
      [
        "▁hảo",
        -10.330449687633664
      ],
      [
        "▁apple",
        -10.330726981246606
      ],
      [
        "▁clone",
        -10.330841064449972
      ],
      [
        "▁hầm",
        -10.331205445857874
      ],
      [
        "▁chuyến",
        -10.331318165102036
      ],
      [
        "▁quỹ",
        -10.3322132512045
      ],
      [
        "▁mốt",
        -10.332781666756928
      ],
      [
        "▁bds",
        -10.33605691354222
      ],
      [
        "▁thâm",
        -10.336370322992988
      ],
      [
        "▁đậm",
        -10.336872441367577
      ],
      [
        "▁coin",
        -10.339699196733998
      ],
      [
        "▁chổ",
        -10.34147339580436
      ],
      [
        "▁liều",
        -10.342281364264169
      ],
      [
        "▁ngọc",
        -10.342872261099822
      ],
      [
        "▁mỏng",
        -10.34670002446264
      ],
      [
        "▁triệ",
        -10.347868785582598
      ],
      [
        "▁xích",
        -10.348263375730047
      ],
      [
        "▁cưa",
        -10.34843242676912
      ],
      [
        "nhưng",
        -10.348829237401072
      ],
      [
        "▁chật",
        -10.348953384982188
      ],
      [
        "▁dốc",
        -10.350269932402966
      ],
      [
        "▁this",
        -10.350457886314818
      ],
      [
        "▁loanh",
        -10.350462013264018
      ],
      [
        "▁tạt",
        -10.352919941376902
      ],
      [
        "▁nhuận",
        -10.35332883973176
      ],
      [
        "▁dâu",
        -10.354145454186977
      ],
      [
        "▁đèo",
        -10.35566962825486
      ],
      [
        "▁option",
        -10.355674683195682
      ],
      [
        "▁giặt",
        -10.357421301843896
      ],
      [
        "▁series",
        -10.360045836476946
      ],
      [
        "tôi",
        -10.360590494176744
      ],
      [
        "▁kem",
        -10.36079687353404
      ],
      [
        "▁chip",
        -10.362940345311104
      ],
      [
        "▁bào",
        -10.363370142380438
      ],
      [
        "▁bđs",
        -10.364554900688514
      ],
      [
        "▁all",
        -10.364876907953049
      ],
      [
        "â",
        -10.366568664042632
      ],
      [
        "▁tổn",
        -10.366993765836424
      ],
      [
        "▁thầu",
        -10.367357992938691
      ],
      [
        "▁dùm",
        -10.36812231430588
      ],
      [
        "▁mail",
        -10.368322428473864
      ],
      [
        "▁vios",
        -10.36918556173966
      ],
      [
        "▁liêm",
        -10.369461928929924
      ],
      [
        "▁phức",
        -10.369825157351633
      ],
      [
        "▁dái",
        -10.370883595573272
      ],
      [
        "▁khoai",
        -10.372051639663349
      ],
      [
        "▁drama",
        -10.372354281961456
      ],
      [
        "ẩ",
        -10.376114839355589
      ],
      [
        "nếu",
        -10.376643448977692
      ],
      [
        "▁giấc",
        -10.37705360924372
      ],
      [
        "▁xắn",
        -10.377099401871009
      ],
      [
        "▁mẽ",
        -10.377250358576765
      ],
      [
        "▁mau",
        -10.378278854583272
      ],
      [
        "▁cốc",
        -10.379717644881476
      ],
      [
        "▁bùng",
        -10.380509946082398
      ],
      [
        "▁culi",
        -10.381534364065262
      ],
      [
        "▁homestay",
        -10.381692682432794
      ],
      [
        "▁đạn",
        -10.382082629254862
      ],
      [
        "▁mặn",
        -10.383802493976413
      ],
      [
        "▁phe",
        -10.386125717160342
      ],
      [
        "▁lazada",
        -10.38635137596416
      ],
      [
        "▁bời",
        -10.3897365240526
      ],
      [
        "▁time",
        -10.390492502476992
      ],
      [
        "▁rét",
        -10.390930114117689
      ],
      [
        "▁phó",
        -10.391498806344453
      ],
      [
        "▁lung",
        -10.391744578097686
      ],
      [
        "▁ngâm",
        -10.392665169270447
      ],
      [
        "▁thối",
        -10.394636224128156
      ],
      [
        "▁cắp",
        -10.39599678734181
      ],
      [
        "j",
        -10.396161185038128
      ],
      [
        "<",
        -10.396194978595542
      ],
      [
        "▁rã",
        -10.396670656895258
      ],
      [
        "▁euro",
        -10.39676459040492
      ],
      [
        "▁lật",
        -10.397363047485324
      ],
      [
        "▁mâm",
        -10.398596264628598
      ],
      [
        "▁cuồng",
        -10.399127414067785
      ],
      [
        "▁hoi",
        -10.399958284067178
      ],
      [
        "ửa",
        -10.399994933193035
      ],
      [
        "▁cồn",
        -10.400274412434566
      ],
      [
        "▁mộng",
        -10.400414507589764
      ],
      [
        "▁chôn",
        -10.400482158790007
      ],
      [
        "▁rước",
        -10.40179066360291
      ],
      [
        "▁cạo",
        -10.403811739966576
      ],
      [
        "▁dộ",
        -10.403949987686358
      ],
      [
        "è",
        -10.409182265493218
      ],
      [
        "▁dép",
        -10.409726180302858
      ],
      [
        "▁file",
        -10.41028113955095
      ],
      [
        "▁usd",
        -10.41044310147276
      ],
      [
        "▁nhả",
        -10.412246809460246
      ],
      [
        "ted",
        -10.412574546019416
      ],
      [
        "▁mại",
        -10.41282792686223
      ],
      [
        "▁tách",
        -10.413673366399529
      ],
      [
        "▁dịp",
        -10.41429713398731
      ],
      [
        "▁nhánh",
        -10.41554796290767
      ],
      [
        "ắ",
        -10.41557600886243
      ],
      [
        "▁nén",
        -10.415876112575196
      ],
      [
        "▁sập",
        -10.4162645434008
      ],
      [
        "▁mượt",
        -10.416951752736706
      ],
      [
        "▁xào",
        -10.416959388496473
      ],
      [
        "▁trùm",
        -10.41724104481803
      ],
      [
        "▁troll",
        -10.417852457529564
      ],
      [
        "▁live",
        -10.41854474575223
      ],
      [
        "▁lội",
        -10.41916604780465
      ],
      [
        "▁tởm",
        -10.419741970280292
      ],
      [
        "▁cạc",
        -10.42135047871731
      ],
      [
        "▁big",
        -10.42140150161221
      ],
      [
        "▁bão",
        -10.424556927923549
      ],
      [
        "▁vạch",
        -10.424996996608412
      ],
      [
        "▁quét",
        -10.426268700787029
      ],
      [
        "▁nứt",
        -10.42674193756494
      ],
      [
        "▁đoan",
        -10.428184281266224
      ],
      [
        "▁gân",
        -10.42870782087296
      ],
      [
        "▁xông",
        -10.428953194742425
      ],
      [
        "▁khoái",
        -10.429341997227002
      ],
      [
        "▁mây",
        -10.430010864064547
      ],
      [
        "▁apply",
        -10.430212102654131
      ],
      [
        "▁vcc",
        -10.43212779274902
      ],
      [
        "▁bức",
        -10.434647023943777
      ],
      [
        "▁tam",
        -10.434847355688586
      ],
      [
        "▁phím",
        -10.43570072554715
      ],
      [
        "hằng",
        -10.436973996636413
      ],
      [
        "▁lờ",
        -10.439647951658866
      ],
      [
        "▁rồng",
        -10.439850125112043
      ],
      [
        "▁gom",
        -10.44034156752618
      ],
      [
        "▁rung",
        -10.4406999465244
      ],
      [
        "▁vcb",
        -10.44079358106566
      ],
      [
        "▁khắ",
        -10.44105608459651
      ],
      [
        "▁lắn",
        -10.44116682859686
      ],
      [
        "▁de",
        -10.441388953454032
      ],
      [
        "▁thấ",
        -10.444176644526662
      ],
      [
        "▁bọt",
        -10.44473538997833
      ],
      [
        "▁họng",
        -10.444883721881835
      ],
      [
        "▁khỉ",
        -10.445350406789297
      ],
      [
        "▁gối",
        -10.446110689339369
      ],
      [
        "▁steak",
        -10.446507779441278
      ],
      [
        "▁indo",
        -10.447369368984152
      ],
      [
        "▁gi",
        -10.447399866673075
      ],
      [
        "▁truy",
        -10.449321679510367
      ],
      [
        "▁bậc",
        -10.450095611522942
      ],
      [
        "▁cháo",
        -10.450134456333476
      ],
      [
        "ong",
        -10.450414770910012
      ],
      [
        "▁ghép",
        -10.453579099592751
      ],
      [
        "▁tgian",
        -10.45529937803028
      ],
      [
        "▁ngôi",
        -10.455792930414642
      ],
      [
        "▁quạt",
        -10.457801980093947
      ],
      [
        "▁vời",
        -10.459441147271887
      ],
      [
        "▁tiki",
        -10.45977622187077
      ],
      [
        "▁trễ",
        -10.461967175992484
      ],
      [
        "▁chọc",
        -10.46237503983777
      ],
      [
        "▁moá",
        -10.46391710918044
      ],
      [
        "▁lít",
        -10.464165686651938
      ],
      [
        "▁giành",
        -10.466437708551172
      ],
      [
        "▁ngựa",
        -10.46765443754625
      ],
      [
        "anh",
        -10.46929316502002
      ],
      [
        "▁case",
        -10.471801114474948
      ],
      [
        "▁line",
        -10.4723824957167
      ],
      [
        "▁lắc",
        -10.47415765013166
      ],
      [
        "▁some",
        -10.475079064839722
      ],
      [
        "▁fpt",
        -10.47539951359969
      ],
      [
        "▁tú",
        -10.476321786720684
      ],
      [
        "▁trại",
        -10.476941965764604
      ],
      [
        "▁mềnh",
        -10.476957361318156
      ],
      [
        "▁cccd",
        -10.478796486895249
      ],
      [
        "▁bu",
        -10.479434674860164
      ],
      [
        "▁dã",
        -10.48126201746702
      ],
      [
        "▁gắt",
        -10.48181387571586
      ],
      [
        "▁next",
        -10.481953781808349
      ],
      [
        "▁lồng",
        -10.48258864636261
      ],
      [
        "▁dập",
        -10.48271498898451
      ],
      [
        "▁kiên",
        -10.48281232698406
      ],
      [
        "▁khuya",
        -10.483878833454543
      ],
      [
        "▁hiếu",
        -10.484126900216628
      ],
      [
        "▁new",
        -10.48416421067792
      ],
      [
        "hưng",
        -10.48440975802428
      ],
      [
        "▁bang",
        -10.487058504057694
      ],
      [
        "▁giãn",
        -10.48813174430475
      ],
      [
        "▁gập",
        -10.488614323954607
      ],
      [
        "năm",
        -10.489137577273407
      ],
      [
        "▁đớn",
        -10.492006340003424
      ],
      [
        "▁type",
        -10.492468990333492
      ],
      [
        "▁rạc",
        -10.49379300035428
      ],
      [
        "▁nháy",
        -10.494159463072744
      ],
      [
        "▁đặn",
        -10.49570069062926
      ],
      [
        "▁cúng",
        -10.496265914155464
      ],
      [
        "▁riết",
        -10.496965609708456
      ],
      [
        "▁nhẽ",
        -10.497441388815222
      ],
      [
        "▁quỷ",
        -10.49874794719641
      ],
      [
        "yến",
        -10.500196545434724
      ],
      [
        "phật",
        -10.503701401188057
      ],
      [
        "▁bọc",
        -10.504073084154838
      ],
      [
        "▁net",
        -10.504073850506192
      ],
      [
        "▁not",
        -10.504496970154094
      ],
      [
        "▁stress",
        -10.505999692885633
      ],
      [
        "▁hang",
        -10.506843881540654
      ],
      [
        "▁vẹ",
        -10.506990361303194
      ],
      [
        "▁giùm",
        -10.50849053390788
      ],
      [
        "▁nhóc",
        -10.511275050259036
      ],
      [
        "▁mốc",
        -10.511670009859248
      ],
      [
        "▁box",
        -10.512150787177612
      ],
      [
        "▁ngớ",
        -10.512847033793127
      ],
      [
        "▁form",
        -10.512957839925692
      ],
      [
        "▁sỹ",
        -10.513391369425806
      ],
      [
        "ra",
        -10.515103599586404
      ],
      [
        "▁dãi",
        -10.51651709048929
      ],
      [
        "▁club",
        -10.518379069530129
      ],
      [
        "▁múa",
        -10.518451855446356
      ],
      [
        "▁xưởng",
        -10.518710087034153
      ],
      [
        "▁cuốc",
        -10.520749882265603
      ],
      [
        "▁trinh",
        -10.521213526193089
      ],
      [
        "▁buff",
        -10.521260672396794
      ],
      [
        "▁sp",
        -10.522542771910537
      ],
      [
        "▁zai",
        -10.522963723099584
      ],
      [
        "▁chuối",
        -10.523258716673404
      ],
      [
        "ỷ",
        -10.523285174854026
      ],
      [
        "▁lang",
        -10.523509793983015
      ],
      [
        "▁bồi",
        -10.5235561180302
      ],
      [
        "▁trend",
        -10.52492996187396
      ],
      [
        "▁bớ",
        -10.525298073369232
      ],
      [
        "▁huế",
        -10.525363915182163
      ],
      [
        "▁ngõ",
        -10.527019361674345
      ],
      [
        "▁list",
        -10.52834802814396
      ],
      [
        "▁hiếp",
        -10.528866413332691
      ],
      [
        "▁bth",
        -10.530445984453234
      ],
      [
        "▁we",
        -10.530709133884288
      ],
      [
        "▁quăng",
        -10.531032816401911
      ],
      [
        "▁thề",
        -10.531484398251516
      ],
      [
        "▁nhẫn",
        -10.531562729606533
      ],
      [
        "▁camera",
        -10.532674131811572
      ],
      [
        "▁sub",
        -10.535012947727385
      ],
      [
        "▁tuấn",
        -10.536616730240818
      ],
      [
        "▁body",
        -10.537994125370124
      ],
      [
        "▁pr",
        -10.54200158515258
      ],
      [
        "▁xôi",
        -10.542023198838056
      ],
      [
        "▁mỏ",
        -10.54293563473227
      ],
      [
        "▁van",
        -10.545224516596036
      ],
      [
        "▁dũng",
        -10.550024266814614
      ],
      [
        "▁tphcm",
        -10.550140838801678
      ],
      [
        "▁rỗn",
        -10.551371798825624
      ],
      [
        "▁amazon",
        -10.551435750391146
      ],
      [
        "▁tech",
        -10.551974534611936
      ],
      [
        "▁gang",
        -10.552931228557611
      ],
      [
        "▁bẻ",
        -10.55370639971492
      ],
      [
        "▁đùng",
        -10.55403745886349
      ],
      [
        "▁nhịp",
        -10.554252061921929
      ],
      [
        "▁thấm",
        -10.554562328680856
      ],
      [
        "▁giảng",
        -10.5552021925831
      ],
      [
        "▁wave",
        -10.556593852974355
      ],
      [
        "▁sing",
        -10.556732840202082
      ],
      [
        "▁men",
        -10.557409076837043
      ],
      [
        "▁trúc",
        -10.557996285821048
      ],
      [
        "▁què",
        -10.558237553187045
      ],
      [
        "▁bhxh",
        -10.55844090222095
      ],
      [
        "▁nhược",
        -10.559407496076464
      ],
      [
        "▁nhể",
        -10.559599618692214
      ],
      [
        "▁đểu",
        -10.559746777598642
      ],
      [
        "▁rẽ",
        -10.56196249811389
      ],
      [
        "▁trích",
        -10.563241070702125
      ],
      [
        "▁rén",
        -10.56452067651284
      ],
      [
        "▁đòn",
        -10.564542761661796
      ],
      [
        "▁easy",
        -10.565565607631822
      ],
      [
        "▁râu",
        -10.567232299308088
      ],
      [
        "▁trưng",
        -10.56786254493995
      ],
      [
        "▁bỗng",
        -10.56917453754504
      ],
      [
        "▁nguyện",
        -10.569720422069734
      ],
      [
        "▁liv",
        -10.570281354005544
      ],
      [
        "▁lùa",
        -10.570751201511907
      ],
      [
        "▁rắn",
        -10.57112714767072
      ],
      [
        "▁bạ",
        -10.571355041054398
      ],
      [
        "▁lẹ",
        -10.571934070036583
      ],
      [
        "▁cai",
        -10.572234265555725
      ],
      [
        "▁lươn",
        -10.572237989657957
      ],
      [
        "▁laptop",
        -10.57301862860009
      ],
      [
        "▁bạt",
        -10.574236891824334
      ],
      [
        "▁thô",
        -10.57525019807412
      ],
      [
        "▁vtv",
        -10.575947416097158
      ],
      [
        "▁hụt",
        -10.577465804875931
      ],
      [
        "▁khẳng",
        -10.577523954980938
      ],
      [
        "hàng",
        -10.579448245479789
      ],
      [
        "▁chùa",
        -10.5802179737122
      ],
      [
        "▁lệnh",
        -10.583214673000004
      ],
      [
        "▁chuông",
        -10.584266059311185
      ],
      [
        "▁trá",
        -10.584336802082865
      ],
      [
        "▁khuôn",
        -10.586042286060367
      ],
      [
        "▁đinh",
        -10.586606268673584
      ],
      [
        "▁head",
        -10.58675995091694
      ],
      [
        "▁luộc",
        -10.587843837133263
      ],
      [
        "▁phuộc",
        -10.587876110317357
      ],
      [
        "▁job",
        -10.588301904129546
      ],
      [
        "▁rụng",
        -10.593950659601983
      ],
      [
        "▁xám",
        -10.594603386637308
      ],
      [
        "▁phụng",
        -10.59482789713654
      ],
      [
        "▁ngăn",
        -10.595798029164584
      ],
      [
        "▁cất",
        -10.596819631896745
      ],
      [
        "▁film",
        -10.596940130425876
      ],
      [
        "▁quyể",
        -10.597547355411356
      ],
      [
        "▁rễ",
        -10.59822493029911
      ],
      [
        "`",
        -10.598276745244318
      ],
      [
        "▁cúm",
        -10.601896474959892
      ],
      [
        "▁vuông",
        -10.60427176629969
      ],
      [
        "▁try",
        -10.604327660917066
      ],
      [
        "▁vữn",
        -10.60488958940598
      ],
      [
        "▁rưởi",
        -10.605432144105183
      ],
      [
        "▁lóc",
        -10.607910517157045
      ],
      [
        "▁rạp",
        -10.609411170273798
      ],
      [
        "▁mazda",
        -10.61053127378833
      ],
      [
        "đùi",
        -10.610820314635498
      ],
      [
        "▁bạo",
        -10.611296309491502
      ],
      [
        "▁bom",
        -10.612261976533278
      ],
      [
        "▁đai",
        -10.615378384696616
      ],
      [
        "▁chợt",
        -10.616274098584851
      ],
      [
        "▁dai",
        -10.618466135997538
      ],
      [
        "▁giề",
        -10.622521731760902
      ],
      [
        "▁hack",
        -10.62493776533523
      ],
      [
        "do",
        -10.625778209786349
      ],
      [
        "▁rộn",
        -10.625955502337858
      ],
      [
        "▁cương",
        -10.626202675261805
      ],
      [
        "▁baby",
        -10.626272994898953
      ],
      [
        "▁bội",
        -10.628872748577647
      ],
      [
        "▁epl",
        -10.630778257950938
      ],
      [
        "▁phũ",
        -10.631708585307496
      ],
      [
        "▁đụ",
        -10.631801012562455
      ],
      [
        "▁khoát",
        -10.632544217663078
      ],
      [
        "▁order",
        -10.634799655823455
      ],
      [
        "▁confirm",
        -10.636757583237069
      ],
      [
        "▁trộn",
        -10.637230227988717
      ],
      [
        "▁triều",
        -10.637458138703504
      ],
      [
        "▁bad",
        -10.637887959601844
      ],
      [
        "▁tivi",
        -10.639475648839792
      ],
      [
        "▁cửng",
        -10.641286372148768
      ],
      [
        "▁nhợn",
        -10.641802536127734
      ],
      [
        "▁info",
        -10.64388425241932
      ],
      [
        "▁khói",
        -10.644851125773236
      ],
      [
        "▁nhìu",
        -10.646597480931566
      ],
      [
        "cái",
        -10.647177695416772
      ],
      [
        "mình",
        -10.647250499355923
      ],
      [
        "▁mạn",
        -10.648171149723373
      ],
      [
        "▁nuố",
        -10.64964848416819
      ],
      [
        "▁đực",
        -10.649963491133803
      ],
      [
        "▁lãng",
        -10.650057431031698
      ],
      [
        "[",
        -10.65136626015359
      ],
      [
        "▁hiển",
        -10.653221993458292
      ],
      [
        "▁call",
        -10.654957708047322
      ],
      [
        "▁slot",
        -10.655380885228803
      ],
      [
        "▁ngửi",
        -10.656123005996426
      ],
      [
        "▁mưu",
        -10.656248237729768
      ],
      [
        "▁sỉ",
        -10.657840563899386
      ],
      [
        "▁nhát",
        -10.658127693158027
      ],
      [
        "▁vải",
        -10.659404535035389
      ],
      [
        "▁thách",
        -10.659560717199348
      ],
      [
        "▁kiu",
        -10.659632033675017
      ],
      [
        "▁phủi",
        -10.660974712967086
      ],
      [
        "▁lẫ",
        -10.661205269366716
      ],
      [
        "▁cross",
        -10.662789889308645
      ],
      [
        "▁lặn",
        -10.663013740560682
      ],
      [
        "▁lux",
        -10.663262906118746
      ],
      [
        "▁hẻm",
        -10.66407945255849
      ],
      [
        "▁hoay",
        -10.66495281784334
      ],
      [
        "▁thép",
        -10.666217149834084
      ],
      [
        "▁nhượng",
        -10.667146236872432
      ],
      [
        "▁shit",
        -10.668053672937798
      ],
      [
        "▁main",
        -10.668058742474557
      ],
      [
        "▁phét",
        -10.669547164404372
      ],
      [
        "▁same",
        -10.670384884136016
      ],
      [
        "▁dạn",
        -10.671125460633824
      ],
      [
        "▁mỳ",
        -10.673029311491506
      ],
      [
        "▁dọc",
        -10.673344030287826
      ],
      [
        "▁ngầm",
        -10.67384635140717
      ],
      [
        "ông",
        -10.676292256734824
      ],
      [
        "▁tỏa",
        -10.676452861035784
      ],
      [
        "▁khớp",
        -10.676773293562375
      ],
      [
        "▁build",
        -10.677651650154992
      ],
      [
        "▁viễ",
        -10.67829317319184
      ],
      [
        "▁hope",
        -10.680323538846556
      ],
      [
        "▁trữ",
        -10.680487281121518
      ],
      [
        "▁rực",
        -10.682126921393037
      ],
      [
        "▁lầ",
        -10.683116925005944
      ],
      [
        "▁đố",
        -10.685200563355377
      ],
      [
        "▁bến",
        -10.685390155984724
      ],
      [
        "▁móng",
        -10.686661555551256
      ],
      [
        "ngày",
        -10.68747256940942
      ],
      [
        "▁vib",
        -10.687955664213622
      ],
      [
        "▁chen",
        -10.68818372220767
      ],
      [
        "▁loạ",
        -10.688607751449693
      ],
      [
        "oan",
        -10.688667655494596
      ],
      [
        "▁sảng",
        -10.690617354625896
      ],
      [
        "▁vặn",
        -10.69210691328364
      ],
      [
        "▁contact",
        -10.694507401141744
      ],
      [
        "▁skill",
        -10.694962871292184
      ],
      [
        "▁nghịch",
        -10.697232980115356
      ],
      [
        "▁dẫm",
        -10.697867358326306
      ],
      [
        "▁lấn",
        -10.698312892690137
      ],
      [
        "▁bar",
        -10.698635860817111
      ],
      [
        "▁keo",
        -10.700956750567896
      ],
      [
        "▁lòn",
        -10.702391929925998
      ],
      [
        "▁bấ",
        -10.70254170197212
      ],
      [
        "▁lượn",
        -10.703263859450622
      ],
      [
        "▁mác",
        -10.704809328095054
      ],
      [
        "▁ngũ",
        -10.705179133237856
      ],
      [
        "▁via",
        -10.70684189673661
      ],
      [
        "nextvoz",
        -10.707428702459884
      ],
      [
        "▁data",
        -10.708554904106553
      ],
      [
        "▁nhờn",
        -10.708621860962866
      ],
      [
        "▁abs",
        -10.70912973690588
      ],
      [
        "▁cug",
        -10.709348168084476
      ],
      [
        "▁internet",
        -10.711922371190903
      ],
      [
        "▁ngạo",
        -10.712310645269204
      ],
      [
        "▁ráp",
        -10.712675385942251
      ],
      [
        "▁chủng",
        -10.71339346836222
      ],
      [
        "▁rũ",
        -10.714041927118132
      ],
      [
        "▁lam",
        -10.716075162661832
      ],
      [
        "ặ",
        -10.71665249308664
      ],
      [
        "▁bồn",
        -10.717125285292571
      ],
      [
        "▁dell",
        -10.71843460497462
      ],
      [
        "▁rỡ",
        -10.71845728641317
      ],
      [
        "▁thuyền",
        -10.720391512431164
      ],
      [
        "▁thým",
        -10.720964513967433
      ],
      [
        "▁nhái",
        -10.722312847445014
      ],
      [
        "▁hét",
        -10.723509927125956
      ],
      [
        "▁muôn",
        -10.725370745638555
      ],
      [
        "▁add",
        -10.72771852112437
      ],
      [
        "▁samsung",
        -10.728420381638337
      ],
      [
        "▁lặng",
        -10.72979715873609
      ],
      [
        "▁chín",
        -10.730578993301936
      ],
      [
        "▁off",
        -10.731807920936872
      ],
      [
        "hẹp",
        -10.73206226741734
      ],
      [
        "▁lead",
        -10.732716063089056
      ],
      [
        "▁lõi",
        -10.732786460527404
      ],
      [
        "▁lộc",
        -10.7332471976994
      ],
      [
        "▁ngẩn",
        -10.733942915508983
      ],
      [
        "▁điền",
        -10.734826834939748
      ],
      [
        "▁mét",
        -10.735269807592866
      ],
      [
        "▁cmnd",
        -10.735305122082195
      ],
      [
        "▁vỉa",
        -10.736082076612842
      ],
      [
        "▁bỡ",
        -10.736510233228802
      ],
      [
        "▁run",
        -10.737174792124517
      ],
      [
        "▁lum",
        -10.737794555249252
      ],
      [
        "▁again",
        -10.738229746811651
      ],
      [
        "ròng",
        -10.738613640600091
      ],
      [
        "▁tour",
        -10.73871590523949
      ],
      [
        "▁var",
        -10.738746342459995
      ],
      [
        "▁vẩu",
        -10.739681404936173
      ],
      [
        "▁giò",
        -10.739895029335104
      ],
      [
        "▁khấu",
        -10.739924114859395
      ],
      [
        "▁chanh",
        -10.740778703879243
      ],
      [
        "thi",
        -10.741569482136132
      ],
      [
        "▁phậ",
        -10.741631305252644
      ],
      [
        "đắp",
        -10.741704056718268
      ],
      [
        "▁sầu",
        -10.743581624345246
      ],
      [
        "▁chát",
        -10.743994502363128
      ],
      [
        "▁ps",
        -10.744351501275398
      ],
      [
        "▁mụ",
        -10.74485998095721
      ],
      [
        "▁khốn",
        -10.747073472829168
      ],
      [
        "▁gội",
        -10.747133079883415
      ],
      [
        "▁vĩ",
        -10.747686334673917
      ],
      [
        "▁world",
        -10.748280481575463
      ],
      [
        "thụt",
        -10.749995076038536
      ],
      [
        "▁ướt",
        -10.750150102073995
      ],
      [
        "▁xô",
        -10.753471220925125
      ],
      [
        "▁khú",
        -10.753522910173944
      ],
      [
        "▁rãnh",
        -10.754596922037203
      ],
      [
        "▁tấu",
        -10.754822321553725
      ],
      [
        "▁have",
        -10.754884082894833
      ],
      [
        "rườm",
        -10.755925151726911
      ],
      [
        "▁ngoãn",
        -10.756184713700607
      ],
      [
        "▁hsbc",
        -10.758785507664674
      ],
      [
        "▁sugar",
        -10.75942164825065
      ],
      [
        "▁nhặt",
        -10.760464005172308
      ],
      [
        "▁thank",
        -10.763682275281196
      ],
      [
        "▁hoảng",
        -10.763749250691609
      ],
      [
        "▁nhức",
        -10.766705190592324
      ],
      [
        "▁mess",
        -10.766843635716608
      ],
      [
        "▁vinh",
        -10.767040589966305
      ],
      [
        "▁lụ",
        -10.767144645636904
      ],
      [
        "▁logo",
        -10.768550137768912
      ],
      [
        "▁tăn",
        -10.770091952299614
      ],
      [
        "▁momo",
        -10.771180293860018
      ],
      [
        "▁san",
        -10.771912245010306
      ],
      [
        "▁lạy",
        -10.772377480152096
      ],
      [
        "▁tuyền",
        -10.773403770015245
      ],
      [
        "▁trơn",
        -10.77364918486406
      ],
      [
        "▁nuốt",
        -10.774293566999354
      ],
      [
        "▁face",
        -10.776939219884667
      ],
      [
        "ắp",
        -10.777433036119527
      ],
      [
        "▁dè",
        -10.77774190534726
      ],
      [
        "▁ranh",
        -10.778626070552916
      ],
      [
        "▁tăm",
        -10.78141894263873
      ],
      [
        "▁huỷ",
        -10.781673962107224
      ],
      [
        "▁wow",
        -10.781796967843263
      ],
      [
        "▁đắn",
        -10.782129836253
      ],
      [
        "▁tot",
        -10.78334542353935
      ],
      [
        "▁đan",
        -10.785518918160042
      ],
      [
        "daddy",
        -10.78564771222845
      ],
      [
        "▁rang",
        -10.788804404673863
      ],
      [
        "▁vu",
        -10.78958567976343
      ],
      [
        "▁vắt",
        -10.789656490716428
      ],
      [
        "▁hệt",
        -10.789765410692317
      ],
      [
        "▁gào",
        -10.790302961755929
      ],
      [
        "▁lag",
        -10.790316943744877
      ],
      [
        "▁buông",
        -10.790398952018798
      ],
      [
        "▁shipper",
        -10.791236938935157
      ],
      [
        "▁sùn",
        -10.791270712013649
      ],
      [
        "▁dược",
        -10.793148048338308
      ],
      [
        "▁mike",
        -10.794098308633648
      ],
      [
        "hôm",
        -10.796703852429944
      ],
      [
        "▁kẹo",
        -10.79851871986792
      ],
      [
        "▁bruno",
        -10.798663129482197
      ],
      [
        "▁mẩu",
        -10.801793166130311
      ],
      [
        "▁đùn",
        -10.802890385613264
      ],
      [
        "mọi",
        -10.802990408129656
      ],
      [
        "chứ",
        -10.80399158420962
      ],
      [
        "▁đệm",
        -10.806022011554852
      ],
      [
        "▁thốn",
        -10.806424728974058
      ],
      [
        "▁rạn",
        -10.806659022262146
      ],
      [
        "▁fame",
        -10.80672915555358
      ],
      [
        "▁bổng",
        -10.807419685012176
      ],
      [
        "▁phông",
        -10.807460635756192
      ],
      [
        "▁sừng",
        -10.807693315074625
      ],
      [
        "▁hâm",
        -10.80794513912844
      ],
      [
        "▁giây",
        -10.808374986179984
      ],
      [
        "▁ngơi",
        -10.80839783192177
      ],
      [
        "▁league",
        -10.808450111307843
      ],
      [
        "▁mini",
        -10.809221768972662
      ],
      [
        "▁care",
        -10.809563969407831
      ],
      [
        "▁nhì",
        -10.81044014192311
      ],
      [
        "▁nhãn",
        -10.811008881904195
      ],
      [
        "▁bayern",
        -10.811506723030671
      ],
      [
        "▁sếc",
        -10.81205465743786
      ],
      [
        "▁xiaomi",
        -10.8131265035648
      ],
      [
        "▁liếm",
        -10.813383635888217
      ],
      [
        "▁virus",
        -10.81400023441895
      ],
      [
        "hái",
        -10.814036091876911
      ],
      [
        "▁tuôn",
        -10.814635426091346
      ],
      [
        "▁sgm",
        -10.814770515165272
      ],
      [
        "▁khoán",
        -10.815065555585065
      ],
      [
        "▁sườn",
        -10.815560463411504
      ],
      [
        "▁rượ",
        -10.816220307565086
      ],
      [
        "▁vẹo",
        -10.820947675841172
      ],
      [
        "▁phan",
        -10.821141786529944
      ],
      [
        "▁giáp",
        -10.821295308636294
      ],
      [
        "▁myanmar",
        -10.821580592122231
      ],
      [
        "▁def",
        -10.823176007130838
      ],
      [
        "▁space",
        -10.8234718958275
      ],
      [
        "người",
        -10.82664481580328
      ],
      [
        "▁đản",
        -10.830018375125738
      ],
      [
        "▁ghim",
        -10.833516863086514
      ],
      [
        "like",
        -10.833707857954058
      ],
      [
        "▁oops",
        -10.833989268606787
      ],
      [
        "▁lột",
        -10.834045379007977
      ],
      [
        "▁title",
        -10.834962451386248
      ],
      [
        "▁nghễ",
        -10.836171927037975
      ],
      [
        "▁lọt",
        -10.8372540044558
      ],
      [
        "▁kiều",
        -10.83735724219693
      ],
      [
        "sales",
        -10.837362076047672
      ],
      [
        "▁vã",
        -10.83954979127424
      ],
      [
        "▁ignore",
        -10.840850719980038
      ],
      [
        "▁report",
        -10.842029608703928
      ],
      [
        "▁down",
        -10.842658272654374
      ],
      [
        "ghét",
        -10.844296849581545
      ],
      [
        "▁and",
        -10.84453164904363
      ],
      [
        "▁cối",
        -10.844897372192838
      ],
      [
        "▁tần",
        -10.844976082892812
      ],
      [
        "▁note",
        -10.84561329591928
      ],
      [
        "▁thiệ",
        -10.848465417204334
      ],
      [
        "▁thầm",
        -10.848810077329103
      ],
      [
        "▁beer",
        -10.84952890053553
      ],
      [
        "▁lap",
        -10.849535458755168
      ],
      [
        "▁ếch",
        -10.849973770737993
      ],
      [
        "▁nhe",
        -10.851648874104548
      ],
      [
        "▁nhỡ",
        -10.852602731482632
      ],
      [
        "▁voucher",
        -10.85614341317441
      ],
      [
        "▁đáo",
        -10.856498395594
      ],
      [
        "▁còm",
        -10.85799090282896
      ],
      [
        "▁sót",
        -10.85981143991699
      ],
      [
        "▁trân",
        -10.860043060758782
      ],
      [
        "▁trộ",
        -10.86006642382122
      ],
      [
        "▁farm",
        -10.861018055429142
      ],
      [
        "▁bưng",
        -10.861066665944165
      ],
      [
        "▁jack",
        -10.862361521268774
      ],
      [
        "▁thôn",
        -10.862567715802143
      ],
      [
        "▁chìm",
        -10.863918557533776
      ],
      [
        "▁tier",
        -10.866426621574028
      ],
      [
        "▁bân",
        -10.86669976767569
      ],
      [
        "▁sứ",
        -10.867955724284595
      ],
      [
        "▁vong",
        -10.868543872847658
      ],
      [
        "▁lu",
        -10.868804357726216
      ],
      [
        "giờ",
        -10.868960332237778
      ],
      [
        "àng",
        -10.869304202121317
      ],
      [
        "▁khích",
        -10.869529127960266
      ],
      [
        "▁trương",
        -10.869594875055396
      ],
      [
        "▁dinh",
        -10.870151621385764
      ],
      [
        "▁mĩ",
        -10.87202726506513
      ],
      [
        "▁đắng",
        -10.87226386910457
      ],
      [
        "▁ngoặt",
        -10.87259179163735
      ],
      [
        "▁ben",
        -10.87277798554701
      ],
      [
        "▁nồng",
        -10.873629927131088
      ],
      [
        "▁vinfast",
        -10.873819929278126
      ],
      [
        "cau",
        -10.874431895143507
      ],
      [
        "▁nhẹn",
        -10.875964337068147
      ],
      [
        "▁chuỗi",
        -10.876906569169735
      ],
      [
        "▁đếu",
        -10.87882272630632
      ],
      [
        "▁lấc",
        -10.878836480523038
      ],
      [
        "▁qúa",
        -10.879473046632212
      ],
      [
        "▁thướ",
        -10.880415345073446
      ],
      [
        "▁pressing",
        -10.88050597459968
      ],
      [
        "▁nôn",
        -10.88126367300342
      ],
      [
        "▁điệu",
        -10.881371366076628
      ],
      [
        "▁change",
        -10.881866930975455
      ],
      [
        "▁phun",
        -10.882071985688992
      ],
      [
        "▁cấc",
        -10.882201528553331
      ],
      [
        "▁solo",
        -10.88229319024833
      ],
      [
        "▁hạch",
        -10.88251872557977
      ],
      [
        "▁rồ",
        -10.88435471518849
      ],
      [
        "▁đựng",
        -10.885129882649643
      ],
      [
        "▁rào",
        -10.886709338885186
      ],
      [
        "▁nhã",
        -10.886810054426528
      ],
      [
        "▁dặn",
        -10.88716870605485
      ],
      [
        "▁thừn",
        -10.88734221965466
      ],
      [
        "▁quỳ",
        -10.887572393615468
      ],
      [
        "▁sport",
        -10.88767508948784
      ],
      [
        "▁kiệt",
        -10.889252442478062
      ],
      [
        "▁ruộng",
        -10.891279511859308
      ],
      [
        "▁quẩy",
        -10.89173760307724
      ],
      [
        "▁tảng",
        -10.891949584019304
      ],
      [
        "▁toà",
        -10.892236575746317
      ],
      [
        "▁hihi",
        -10.892347980056478
      ],
      [
        "▁hung",
        -10.89260167654789
      ],
      [
        "▁rãi",
        -10.893102898742198
      ],
      [
        "▁map",
        -10.893777705215175
      ],
      [
        "▁cởi",
        -10.893788506623611
      ],
      [
        "lĩnh",
        -10.894397404908489
      ],
      [
        "▁back",
        -10.89476355753939
      ],
      [
        "▁tks",
        -10.89554813612657
      ],
      [
        "▁sen",
        -10.895607436093512
      ],
      [
        "▁lơi",
        -10.897829204763587
      ],
      [
        "▁style",
        -10.897847543800738
      ],
      [
        "▁thác",
        -10.898098978693303
      ],
      [
        "▁chelsea",
        -10.898602253030418
      ],
      [
        "▁xòa",
        -10.898794137066856
      ],
      [
        "▁ez",
        -10.901403296186762
      ],
      [
        "▁lẹo",
        -10.901586783428831
      ],
      [
        "▁reo",
        -10.90168047839529
      ],
      [
        "▁nuôn",
        -10.901871809561134
      ],
      [
        "▁fix",
        -10.90225075976162
      ],
      [
        "▁checker",
        -10.903925468921054
      ],
      [
        "cho",
        -10.905726969329216
      ],
      [
        "▁chồ",
        -10.90578931244256
      ],
      [
        "▁avatar",
        -10.905814100029946
      ],
      [
        "▁xé",
        -10.906155537440725
      ],
      [
        "▁vòi",
        -10.907158083175409
      ],
      [
        "▁zái",
        -10.907685956826324
      ],
      [
        "▁day",
        -10.908275662654075
      ],
      [
        "▁chiết",
        -10.908377060768403
      ],
      [
        "▁xay",
        -10.910197304588316
      ],
      [
        "▁lui",
        -10.9111649430376
      ],
      [
        "▁ngậm",
        -10.912192589539336
      ],
      [
        "cause",
        -10.912586538169403
      ],
      [
        "▁support",
        -10.912711169141849
      ],
      [
        "▁ơiiii",
        -10.913134614999908
      ],
      [
        "▁rùa",
        -10.913265981452476
      ],
      [
        "▁xót",
        -10.91345344577769
      ],
      [
        "▁phơi",
        -10.913471325517968
      ],
      [
        "▁chưởng",
        -10.914207614245996
      ],
      [
        "▁sôi",
        -10.915065526127687
      ],
      [
        "▁submit",
        -10.915341948269385
      ],
      [
        "▁chừa",
        -10.915359773929932
      ],
      [
        "▁into",
        -10.919866790970024
      ],
      [
        "▁gồng",
        -10.920552562183651
      ],
      [
        "▁still",
        -10.921510061298454
      ],
      [
        "▁gác",
        -10.92172304839132
      ],
      [
        "▁ngầu",
        -10.922771017095345
      ],
      [
        "▁one",
        -10.92312646468403
      ],
      [
        "▁ngô",
        -10.923481268578437
      ],
      [
        "▁ksao",
        -10.92607154705022
      ],
      [
        "▁rym",
        -10.928950118537196
      ],
      [
        "▁biden",
        -10.929400458884604
      ],
      [
        "▁lũy",
        -10.929717242538688
      ],
      [
        "▁cưng",
        -10.930984677420472
      ],
      [
        "▁khiếu",
        -10.931670109569383
      ],
      [
        "▁qủa",
        -10.932433311462642
      ],
      [
        "▁mode",
        -10.932777660977676
      ],
      [
        "▁đớp",
        -10.933179133588611
      ],
      [
        "▁bã",
        -10.933932640645716
      ],
      [
        "▁nứng",
        -10.934079595951658
      ],
      [
        "▁vip",
        -10.93522110705742
      ],
      [
        "▁dằ",
        -10.935357673674678
      ],
      [
        "▁ghền",
        -10.93885170828248
      ],
      [
        "▁sương",
        -10.93940058646876
      ],
      [
        "▁myfen",
        -10.940494769806252
      ],
      [
        "▁xướ",
        -10.941776860777452
      ],
      [
        "▁dda",
        -10.943700407327611
      ],
      [
        "hông",
        -10.943934618584674
      ],
      [
        "▁hỏn",
        -10.945584779216327
      ],
      [
        "▁tọe",
        -10.94590388243606
      ],
      [
        "▁later",
        -10.9459332784401
      ],
      [
        "▁voi",
        -10.947249691414369
      ],
      [
        "làm",
        -10.947686125522964
      ],
      [
        "▁vuốt",
        -10.948376142888783
      ],
      [
        "▁ki",
        -10.948387329153595
      ],
      [
        "▁vấp",
        -10.94848368935799
      ],
      [
        "▁lesor",
        -10.948588093694712
      ],
      [
        "▁móa",
        -10.949666690104872
      ],
      [
        "▁led",
        -10.950982890040509
      ],
      [
        "▁trục",
        -10.952290247771506
      ],
      [
        "▁ngử",
        -10.953905077981185
      ],
      [
        "▁bừa",
        -10.955127574978857
      ],
      [
        "▁marketing",
        -10.955857464242614
      ],
      [
        "▁châm",
        -10.95836915640078
      ],
      [
        "▁fadil",
        -10.959203007258738
      ],
      [
        "▁adachi",
        -10.959393447312817
      ],
      [
        "▁cạn",
        -10.95939853014505
      ],
      [
        "▁kyu",
        -10.959737975920085
      ],
      [
        "▁nhồi",
        -10.959795909888516
      ],
      [
        "elements",
        -10.960604678320754
      ],
      [
        "▁ddt",
        -10.960615785454666
      ],
      [
        "▁osin",
        -10.962306813550008
      ],
      [
        "▁tàng",
        -10.96336129646565
      ],
      [
        "▁xamer",
        -10.963886310512098
      ],
      [
        "freud",
        -10.964136392225708
      ],
      [
        "▁contain",
        -10.964469535902346
      ],
      [
        "▁administrator",
        -10.965056294950218
      ],
      [
        "▁thự",
        -10.965530889794984
      ],
      [
        "▁lược",
        -10.96681316236713
      ],
      [
        "▁thậ",
        -10.966888399077574
      ],
      [
        "▁zế",
        -10.968265621839642
      ],
      [
        "▁mitsur",
        -10.968957583420776
      ],
      [
        "▁continuous",
        -10.969364325387613
      ],
      [
        "▁luân",
        -10.96978867178408
      ],
      [
        "appropriat",
        -10.96982700266884
      ],
      [
        "▁sakha",
        -10.970138542204976
      ],
      [
        "▁xéc",
        -10.970409767844176
      ],
      [
        "▁lẩu",
        -10.971491758537754
      ],
      [
        "▁base",
        -10.971540055962382
      ],
      [
        "▁likel",
        -10.972210256690838
      ],
      [
        "▁trọc",
        -10.97292293790157
      ],
      [
        "▁phang",
        -10.974618611460604
      ],
      [
        "▁ngự",
        -10.976138453010767
      ],
      [
        "▁mút",
        -10.980749997564295
      ],
      [
        "▁edit",
        -10.980773890415776
      ],
      [
        "▁brazil",
        -10.982541115501077
      ],
      [
        "▁tèo",
        -10.983928193464129
      ],
      [
        "▁khoan",
        -10.98490265835917
      ],
      [
        "đừng",
        -10.986539931641108
      ],
      [
        "▁wifi",
        -10.987520901952596
      ],
      [
        "▁nhấn",
        -10.98810657004059
      ],
      [
        "▁level",
        -10.988574715692424
      ],
      [
        "húc",
        -10.98928848661288
      ],
      [
        "▁ngưỡn",
        -10.98959991998566
      ],
      [
        "▁phẳng",
        -10.991051643928769
      ],
      [
        "▁bút",
        -10.99115643416182
      ],
      [
        "▁triế",
        -10.992106481592334
      ],
      [
        "▁thò",
        -10.992207211324551
      ],
      [
        "stick",
        -10.992738376164644
      ],
      [
        "▁đao",
        -10.993126342032005
      ],
      [
        "ễ",
        -10.995012046782332
      ],
      [
        "▁dồi",
        -10.996423216657645
      ],
      [
        "▁onl",
        -10.999682786367622
      ],
      [
        "▁nhọ",
        -11.000222501594235
      ],
      [
        "▁phổi",
        -11.00194969357349
      ],
      [
        "▁hãi",
        -11.002367219309509
      ],
      [
        "ăn",
        -11.005749491653871
      ],
      [
        "▁đầm",
        -11.007079416774806
      ],
      [
        "ùng",
        -11.008161774949343
      ],
      [
        "▁nắp",
        -11.008322230157768
      ],
      [
        "▁bụ",
        -11.008497541315716
      ],
      [
        "▁mou",
        -11.011950192162477
      ],
      [
        "như",
        -11.01573930417795
      ],
      [
        "▁ke",
        -11.016565800766983
      ],
      [
        "▁toi",
        -11.01687310942373
      ],
      [
        "háng",
        -11.017837444726323
      ],
      [
        "▁đúc",
        -11.018038099131278
      ],
      [
        "▁khâu",
        -11.021114622293004
      ],
      [
        "▁chuồng",
        -11.022403536565308
      ],
      [
        "▁teo",
        -11.025808296331618
      ],
      [
        "▁nhí",
        -11.02652987163258
      ],
      [
        "▁tịt",
        -11.031396803346908
      ],
      [
        "▁fa",
        -11.031981505134928
      ],
      [
        "▁black",
        -11.032024297014134
      ],
      [
        "▁store",
        -11.032198119267568
      ],
      [
        "▁hoạ",
        -11.03256694979237
      ],
      [
        "▁oải",
        -11.033043796460657
      ],
      [
        "chỉ",
        -11.03336233319653
      ],
      [
        "▁ché",
        -11.034282712477006
      ],
      [
        "▁lù",
        -11.034955552590755
      ],
      [
        "▁server",
        -11.036967444322192
      ],
      [
        "ương",
        -11.038114485850643
      ],
      [
        "▁huấn",
        -11.03884850706434
      ],
      [
        "▁that",
        -11.039152776406326
      ],
      [
        "▁mịn",
        -11.041681557023011
      ],
      [
        "▁thuỷ",
        -11.042886570248704
      ],
      [
        "▁aura",
        -11.043587034018683
      ],
      [
        "▁ven",
        -11.043633276136935
      ],
      [
        "▁cảng",
        -11.045355537148872
      ],
      [
        "▁mắcc",
        -11.045600801867964
      ],
      [
        "▁ielts",
        -11.045687188237304
      ],
      [
        "▁chinh",
        -11.046418709110917
      ],
      [
        "cũng",
        -11.047150923524622
      ],
      [
        "▁rèn",
        -11.048379660906969
      ],
      [
        "▁war",
        -11.05090701879733
      ],
      [
        "▁combat",
        -11.051856488571651
      ],
      [
        "▁lấp",
        -11.052014594089783
      ],
      [
        "▁điếu",
        -11.05210269677094
      ],
      [
        "▁giam",
        -11.05221772608422
      ],
      [
        "▁nâu",
        -11.05253680767248
      ],
      [
        "▁min",
        -11.052778162066671
      ],
      [
        "▁offer",
        -11.0534647232539
      ],
      [
        "▁ngẫm",
        -11.055089293190042
      ],
      [
        "▁mộc",
        -11.055658480500432
      ],
      [
        "ọng",
        -11.056936924379947
      ],
      [
        "▁son",
        -11.056938058809523
      ],
      [
        "▁cản",
        -11.0573506333257
      ],
      [
        "▁lụm",
        -11.058653348251864
      ],
      [
        "▁thưa",
        -11.059949444073029
      ],
      [
        "▁nêu",
        -11.06096575552582
      ],
      [
        "▁anime",
        -11.062512230146991
      ],
      [
        "▁nghiêng",
        -11.065858811894442
      ],
      [
        "▁phấ",
        -11.06836433137578
      ],
      [
        "man",
        -11.070804039516087
      ],
      [
        "▁đoạt",
        -11.071175129283978
      ],
      [
        "▁phượng",
        -11.072230849364864
      ],
      [
        "lỏng",
        -11.077156628899534
      ],
      [
        "▁nhằng",
        -11.078312384715185
      ],
      [
        "▁fe",
        -11.078566701185911
      ],
      [
        "▁khe",
        -11.081763096562216
      ],
      [
        "▁que",
        -11.083315311462256
      ],
      [
        "▁ngụ",
        -11.084040376155816
      ],
      [
        "▁sedan",
        -11.08576498170892
      ],
      [
        "▁khoáng",
        -11.087929164326036
      ],
      [
        "▁trăng",
        -11.089663646833111
      ],
      [
        "▁bảy",
        -11.09065983873749
      ],
      [
        "▁tem",
        -11.092949816427458
      ],
      [
        "▁ngừn",
        -11.093201832561071
      ],
      [
        "▁gạt",
        -11.0933769762952
      ],
      [
        "▁vũng",
        -11.093604590637767
      ],
      [
        "▁nấm",
        -11.09439789213759
      ],
      [
        "▁thèn",
        -11.09445116738882
      ],
      [
        "▁vision",
        -11.098302991221964
      ],
      [
        "▁khánh",
        -11.0987067087821
      ],
      [
        "▁đắc",
        -11.099084247117844
      ],
      [
        "▁cước",
        -11.099560426129695
      ],
      [
        "▁măng",
        -11.100030755667774
      ],
      [
        "▁xxx",
        -11.100450071380404
      ],
      [
        "▁inter",
        -11.100631566642187
      ],
      [
        "▁bùi",
        -11.100649292517195
      ],
      [
        "▁dúi",
        -11.102671710058896
      ],
      [
        "▁siết",
        -11.103161929558002
      ],
      [
        "▁giãy",
        -11.105819093539418
      ],
      [
        "▁phu",
        -11.108142643717708
      ],
      [
        "▁fifa",
        -11.108863346507396
      ],
      [
        "shop",
        -11.109658228397262
      ],
      [
        "▁lén",
        -11.10985559726372
      ],
      [
        "▁lằng",
        -11.110155397844355
      ],
      [
        "▁pre",
        -11.11040448862301
      ],
      [
        "▁lợ",
        -11.11060779351195
      ],
      [
        "▁khùng",
        -11.111690192073072
      ],
      [
        "▁xoắn",
        -11.111851633821235
      ],
      [
        "sau",
        -11.113875486187494
      ],
      [
        "▁bmw",
        -11.115485013657237
      ],
      [
        "▁lord",
        -11.115624426339334
      ],
      [
        "▁lìn",
        -11.11634083521223
      ],
      [
        "▁chel",
        -11.116554638628337
      ],
      [
        "▁hỏa",
        -11.116996220925012
      ],
      [
        "▁xỉu",
        -11.120066358464538
      ],
      [
        "hước",
        -11.121272772345476
      ],
      [
        "▁phước",
        -11.121589271891152
      ],
      [
        "▁nhiu",
        -11.122145623112107
      ],
      [
        "▁ngọn",
        -11.1236610876773
      ],
      [
        "▁loan",
        -11.127525297194346
      ],
      [
        "▁cntt",
        -11.129024930547017
      ],
      [
        "▁fail",
        -11.129459579662978
      ],
      [
        "▁tre",
        -11.132289115570364
      ],
      [
        "▁mâu",
        -11.133124127459984
      ],
      [
        "▁camry",
        -11.13502306538788
      ],
      [
        "▁super",
        -11.1353426740408
      ],
      [
        "▁búa",
        -11.137333696845433
      ],
      [
        "▁qq",
        -11.139511189834067
      ],
      [
        "▁end",
        -11.141209661309697
      ],
      [
        "▁manga",
        -11.141542296257088
      ],
      [
        "▁khẩ",
        -11.142017455152944
      ],
      [
        "trong",
        -11.143516947711328
      ],
      [
        "▁ars",
        -11.14386446873286
      ],
      [
        "▁thê",
        -11.144074864748983
      ],
      [
        "▁bịch",
        -11.14430199049804
      ],
      [
        "▁thạch",
        -11.144514664370549
      ],
      [
        "▁rát",
        -11.14455565906518
      ],
      [
        "▁bong",
        -11.146027306452924
      ],
      [
        "▁sir",
        -11.147004477167894
      ],
      [
        "▁bhyt",
        -11.148541455954105
      ],
      [
        "▁thuẫ",
        -11.149186723009636
      ],
      [
        "▁hốc",
        -11.150328204311975
      ],
      [
        "▁roài",
        -11.150935714861232
      ],
      [
        "▁cùn",
        -11.151083204317109
      ],
      [
        "▁phẫu",
        -11.151294859609216
      ],
      [
        "thắt",
        -11.152601947215368
      ],
      [
        "▁accent",
        -11.152983260813668
      ],
      [
        "thì",
        -11.155929082091015
      ],
      [
        "▁chéo",
        -11.157498397081518
      ],
      [
        "▁dừa",
        -11.158013031885304
      ],
      [
        "▁tuệ",
        -11.158058218175016
      ],
      [
        "▁miế",
        -11.159588697567496
      ],
      [
        "▁nhè",
        -11.16220815843159
      ],
      [
        "tiệc",
        -11.162365284789008
      ],
      [
        "▁ngưng",
        -11.163031339241488
      ],
      [
        "chắc",
        -11.164494096765331
      ],
      [
        "▁thịnh",
        -11.165215852680914
      ],
      [
        "▁gato",
        -11.167574333967735
      ],
      [
        "▁quẩn",
        -11.167750366780124
      ],
      [
        "▁quỵ",
        -11.16869990947753
      ],
      [
        "▁mọe",
        -11.16895553185475
      ],
      [
        "▁kẹp",
        -11.170191496128613
      ],
      [
        "mấy",
        -11.17086082967126
      ],
      [
        "▁nách",
        -11.171183812738724
      ],
      [
        "▁king",
        -11.17429520430271
      ],
      [
        "▁tẹt",
        -11.174919780438865
      ],
      [
        "▁mall",
        -11.175357903639153
      ],
      [
        "▁lõ",
        -11.175870436132694
      ],
      [
        "▁thóc",
        -11.177403188394836
      ],
      [
        "▁shinhan",
        -11.17785122178724
      ],
      [
        "▁muỗi",
        -11.17796956925055
      ],
      [
        "▁click",
        -11.178946149659602
      ],
      [
        "▁tang",
        -11.180502431474222
      ],
      [
        "▁quầy",
        -11.180610571365422
      ],
      [
        "▁kiêng",
        -11.181934199669143
      ],
      [
        "▁first",
        -11.182168533072549
      ],
      [
        "▁túy",
        -11.182905954921535
      ],
      [
        "▁brand",
        -11.183303043941516
      ],
      [
        "▁nảy",
        -11.18563795091035
      ],
      [
        "▁chym",
        -11.185727683300994
      ],
      [
        "thằng",
        -11.185805295842576
      ],
      [
        "▁stk",
        -11.188251179103403
      ],
      [
        "▁massage",
        -11.188367243686226
      ],
      [
        "hoặc",
        -11.189585127391826
      ],
      [
        "▁abc",
        -11.19043789483819
      ],
      [
        "▁ford",
        -11.191684004730703
      ],
      [
        "▁vươn",
        -11.193447533833824
      ],
      [
        "▁se",
        -11.193586144615624
      ],
      [
        "▁trậ",
        -11.193968599948162
      ],
      [
        "▁bill",
        -11.194844949005562
      ],
      [
[...]
